#version: 0.2
N P</w>
t h
V P</w>
N N</w>
I N</w>
th e</w>
i n
a n
P P</w>
D T</w>
r e
V B
t i
e r
e n
N NP</w>
J J</w>
o n
o n</w>
a r
o f</w>
o u
an d</w>
N N
o r
t o</w>
NN S</w>
t e
r o
in g</w>
i s</w>
i n</w>
i t
a l
A D
P R
C C</w>
R B</w>
e s</w>
i s
V B</w>
e d</w>
e r</w>
a t</w>
o m
i c
o r</w>
a l</w>
ti on</w>
s t
s i
a c
a n</w>
PR P</w>
p o
B A
S BA
SBA R</w>
e c
AD VP</w>
i l
VB Z</w>
a s</w>
l y</w>
a t
e s
VB N</w>
v e</w>
en t</w>
u r
e l
th at</w>
a s
p ro
T h
VB P</w>
w h
f or</w>
l i
e n</w>
l e</w>
t s</w>
u s
q u
r a
l e
n o
c on
J P</w>
r i
d e
AD JP</w>
a tion</w>
a m
s u
T O</w>
l o
C D</w>
u n
a b
po s
ar e</w>
ti on
@ -
@- @</w>
h a
d i
o p
VB G</w>
c om
it h</w>
a g
te d</w>
M D</w>
w ith</w>
b e</w>
W H
e m
i t</w>
Th e</w>
b e
a d
re s
p e
c h
c e</w>
l d</w>
e x
ou r</w>
ou n
p or
u l
v er
th is</w>
t a
f or
c i
P $</w>
n e
it y</w>
PR P$</w>
o l
th e
er s</w>
no t</w>
v i
w e</w>
o u</w>
a pos
a y</w>
i m
t r
VB D</w>
b y</w>
s h
o t
er e</w>
ha ve</w>
WH NP</w>
tion s</w>
g h
f f
at e</w>
ic h</w>
y ou</w>
ou ld</w>
il l</w>
t er
m o
u ro
p l
al l</w>
E uro
R B
u c
a r</w>
wh ich</w>
apos ;
b u
w ill</w>
p ar
s e
ro m</w>
m ent</w>
te r</w>
w or
s o</w>
s t</w>
k e</w>
f rom</w>
m a
a p
m e
i r
th er</w>
s e</w>
d s</w>
p er
h as</w>
W DT</w>
m en
o w
apos; s</w>
C om
ur e</w>
ou t</w>
si on</w>
c an</w>
d e</w>
RB -</w>
c o
l a
ab le</w>
e v
Euro pe
e t</w>
Com m
on e</w>
ti c
re n
Europe an</w>
es s</w>
s p
te s</w>
m an
ti ve</w>
al ly</w>
an t</w>
o o
m e</w>
n i
re c
us t</w>
w as</w>
d is
i r</w>
d ing</w>
por t</w>
it s</w>
g i
al so</w>
si d
ou r
c h</w>
or e</w>
h o
qu ot
g e</w>
c oun
t ing</w>
b er</w>
w e
& quot
&quot ;</w>
t u
l u
d uc
in g
com p
h i
f i
gh t</w>
t o
k ing</w>
st r
re d</w>
us e</w>
s o
u s</w>
f e
v e
Comm is
y our</w>
en t
o t</w>
ag e</w>
tion al</w>
f in
a ted</w>
m ore</w>
ver y</w>
t h</w>
t ri
bu t</w>
W e</w>
d er</w>
ar y</w>
t ra
w ould</w>
r ou
in c
a y
ti es</w>
s er
p res
s te
e ar
J J
u m
an ce</w>
2 0
the ir</w>
re sid
g h</w>
ou s</w>
d o
be en</w>
a tions</w>
g u
es s
I n</w>
d ed</w>
d u
m s</w>
p r
& apos;s</w>
es e</w>
m in
qu ot</w>
M r</w>
ic e</w>
g ra
Th is</w>
t en
w i
sh ould</w>
o ther</w>
I t</w>
f u
v er</w>
t y</w>
f ac
por t
a v
ec t</w>
om e</w>
p u
re s</w>
U ni
Commis sion</w>
P resid
on s</w>
as t</w>
b le</w>
es t</w>
l ic
k s</w>
an y</w>
in e</w>
c e
P ar
g o
com m
- L
-L RB-</w>
i es</w>
m ust</w>
- R
-R RB-</w>
am e</w>
m ar
as e</w>
i c</w>
n a
men ts</w>
d o</w>
re g
ti me</w>
s ec
p re
con t
ar d</w>
v el
the y</w>
a u
in ter
W RB</w>
s ti
w el
ec i
k e
for m
p e</w>
th ere</w>
WH ADVP</w>
ne w</w>
d ay</w>
em ber</w>
it e</w>
li ke</w>
su p
Presid ent</w>
no w</w>
en ce</w>
h e
d er
b ec
em ent</w>
on ly</w>
s a
P S</w>
a m</w>
a d</w>
20 0
o ff
ab out</w>
NN PS</w>
en ts</w>
pro duc
I n
wor k</w>
re e</w>
v es</w>
s el
o b
c er
on g</w>
ac e</w>
li am
a re
R P</w>
al l
f ir
s y
g e
c re
u p</w>
c u
ci al</w>
t e</w>
ow n</w>
th ese</w>
st a
be t
i d</w>
A R
t ure</w>
m on
te l</w>
r an
l is
en d
PR T</w>
wh o</w>
W P</w>
p h
w ay</w>
for e</w>
v is
res p
Uni on</w>
ser v
JJ R</w>
de vel
lo c
wi th
en c
tr an
S ta
i f</w>
p ri
op le</w>
t w
t or
liam ent</w>
il ity</w>
o c
n o</w>
t ur
l l</w>
im port
Par liament</w>
mo st</w>
en er
man y</w>
AR G
ti c</w>
i g
Euro pe</w>
ac h</w>
si g
ac c
ar i
na tional</w>
a use</w>
oo d</w>
ic al</w>
e st
pe ople</w>
ec on
al s</w>
ing s</w>
in to</w>
wh at</w>
at ing</w>
g y</w>
an s</w>
as s
en ti
devel op
Sta tes</w>
r u
g re
tri es</w>
is e</w>
i ties</w>
m y</w>
M ember</w>
su ch</w>
re port</w>
sy ste
th o
an d
t ly</w>
oun d</w>
C oun
vi e
ay s</w>
in te
coun tries</w>
wel l</w>
el i
C h
qu i
1 9
di ff
w ere</w>
si ble</w>
ol u
p a
ren t</w>
su b
i on</w>
ci l</w>
ag a
po lic
th an</w>
ne ed</w>
lo w
Coun cil</w>
ev er</w>
pro pos
ch an
d ec
econ om
tic al</w>
p le
pro vi
inc lu
b o
po in
l ar
wh en</w>
op er
fu l</w>
p le</w>
tr y</w>
b i
E U</w>
ad e</w>
0 0</w>
s ome</w>
. .
f un
sp eci
r is
W h
fir st</w>
a il
p s</w>
di rec
import ant</w>
pu b
v ing</w>
h is</w>
ma ke</w>
ta ke</w>
we en</w>
the m</w>
ic es</w>
u e</w>
r on
th ing</w>
v en
gh ts</w>
i z
bet ween</w>
f ic
n ing</w>
c ri
bec ause</w>
c es</w>
le g
il e</w>
in form
v ed</w>
en d</w>
tran s
al ity</w>
g et</w>
f ul
a f
e ff
a te
h e</w>
E X</w>
& #
o ver</w>
u m</w>
il l
apos ;</w>
& apos;</w>
re as
pro b
S Y
y e
wh ere</w>
SY M</w>
C on
h el
te c
m i
po li
j o
ta in
su l
e t
m at
n ed</w>
ac k</w>
li c</w>
c le
m ade</w>
po si
a po
re ad
ear s</w>
si on
ar ds</w>
b as
k et</w>
R e
j ust</w>
sup port</w>
is su
c ur
.. .</w>
com e</w>
H o
or der</w>
c ol
ce p
inform ation</w>
str uc
en tr
i l</w>
y ears</w>
A n
Q P</w>
tw o</w>
per s
tho se</w>
ic i
sti tu
em b
ac h
th rou
I f</w>
j ec
per i
h ere</w>
n ec
resp on
st s</w>
ac t</w>
apo s</w>
wor ld</w>
u r</w>
polic y</w>
tic ul
ow ever</w>
p p
e l</w>
prob le
ri ght</w>
en s
be ing</w>
us ed</w>
ha d</w>
un ity</w>
ap pro
is h</w>
sh i
or s</w>
ver n
g r
it te
p lo
JJ S</w>
pro c
ho tel</w>
s it
t re
m il
par ticul
ag es</w>
lo w</w>
e i
re la
e ve</w>
l in
men t
par t</w>
&# 9
ev en</w>
re fore</w>
qu es
al is
ag re
- 0
o m</w>
syste m</w>
n um
ye ar</w>
en s</w>
for m</w>
RB R</w>
con cer
B u
m ay</w>
f t</w>
l es</w>
s c
ot h</w>
pos sible</w>
ta in</w>
ac k
pro gra
pl ace</w>
w a
su m
lo o
e d
rou p</w>
ur ing</w>
diff e
c our
el l
te ch
e f
th en</w>
is h
i a</w>
A l
g an
ar ly</w>
v al
i d
pub lic</w>
par t
uc h</w>
j ect</w>
vie w</w>
mar ket</w>
coun try</w>
de b
un der
u res</w>
ve l</w>
v en</w>
m is
ou gh</w>
are a</w>
ou s
in v
a k
poli tical</w>
econom ic</w>
sit u
c lo
re gi
comp le
no w
g ood</w>
f o
ta k
throu gh</w>
s ur
ho w</w>
s ame</w>
om s</w>
ac ti
res s</w>
se e</w>
b r
in ce</w>
b eli
e y</w>
l an
cont in
pro tec
st ra
ri ghts</w>
ro w
ch ar
enc y</w>
si ve</w>
develop ment</w>
af ter</w>
sel f</w>
Y ou</w>
A s</w>
pl ic
in st</w>
om e
R A
an c
ti m
read y</w>
en g
o f
r e</w>
k ed</w>
w ant</w>
d es</w>
aga inst</w>
l and</w>
ot e</w>
c or
ic ul
re sul
with in</w>
ex am
m p
c ould</w>
the refore</w>
ex c
s m
l ine</w>
th in
st an
S t
Th ere</w>
Y P
c ar
t or</w>
ou se</w>
ab ility</w>
f ur
or d
H YP
HYP H</w>
g ener
or y</w>
b oth</w>
y ing</w>
d at
m uch</w>
ex p
poin t</w>
F or</w>
I N
th er
go vern
do es</w>
st ar
f ol
n ame</w>
olu tion</w>
b ility</w>
b us
si de</w>
itte e</w>
tri bu
vi ron
d ra
av ail
un der</w>
C O
t al
me as
d ic
l ed</w>
reg ul
G er
fin d</w>
P ro
a ir
c ul
in i
or gan
s pe
c ap
bu il
-0 1</w>
si ons</w>
u d
1 0</w>
is t
with out</w>
l ess</w>
se t</w>
hi gh</w>
ti s
um an</w>
ma in
w s</w>
f e</w>
fac t</w>
qu ality</w>
an k</w>
ro om</w>
so cial</w>
E n
pr in
inter national</w>
te n</w>
f am
te x
t able</w>
num ber</w>
so ci
ou t
a tive</w>
is t</w>
u p
ne e
s ay</w>
sti ll</w>
po w
me di
serv ices</w>
ti z
f ree</w>
on g
com pe
s ed</w>
f ra
c entr
F RA
n er</w>
k now</w>
l ong</w>
b er
beli eve</w>
FRA G</w>
m an</w>
i de
re qui
fu ture</w>
shi p</w>
to o</w>
st ri
al ready</w>
diffe rent</w>
em plo
w ays</w>
S Q</w>
m er
gre at</w>
c a
chan ge</w>
d es
r it
ra p
P DT</w>
oper ation</w>
v ari
tur al</w>
en viron
Commis sion
avail able</w>
el ec
l ast</w>
s ite</w>
bus in
re f
& apos;
a tes</w>
dec is
cour se</w>
ti ves</w>
o w</w>
an cial</w>
to day</w>
s ome
be fore</w>
v o
cu st
res t</w>
Th at</w>
k now
con di
thin k</w>
e p
hi gh
PR N</w>
e ver
in du
l ec
F W</w>
c ase</w>
on al</w>
In ter
su c
A r
op e</w>
le vel</w>
proc ess</w>
di es</w>
Ho tel</w>
produc ts</w>
eff ec
progra m
n at
h uman</w>
p ur
d re
ent ly</w>
au th
posi tion</w>
t ro
is m</w>
Commission er</w>
cont ro
M ar
f a
ur ity</w>
b re
g o</w>
un i
l ation</w>
s k
de sig
emb ers</w>
m en</w>
ci tiz
dat a</w>
c an
re qu
il y</w>
ARG 1</w>
pu t</w>
A f
ma in</w>
wh e
fe ren
ful ly</w>
im pro
fi ed</w>
s en
por ts</w>
an ts</w>
fin ancial</w>
lis h
em ents</w>
ac tion</w>
Bu t</w>
de mo
deb ate</w>
nec ess
ac hi
de p
in d</w>
ad v
propos al</w>
h ar
serv ice</w>
WH PP</w>
issu e</w>
sa id</w>
im ple
s ch
no lo
n al</w>
an t
ma j
c l
wh o
on d</w>
ques tion</w>
ro oms</w>
in stitu
exam ple</w>
19 9
bu d
me ans</w>
c all
t le</w>
ac cep
situ ation</w>
con sid
e ach</w>
lo b
t ers</w>
p ul
tak en</w>
d am
dis c
off ers</w>
re pres
N X</w>
man ag
d en</w>
h al
or ity</w>
h is
cle ar</w>
ad op
s ince</w>
d uring</w>
o ver
ex t</w>
n s</w>
st and
H owever</w>
g ed</w>
ap plic
demo c
1 2
ve ly</w>
di vi
fi c</w>
ch il
cust om
inclu ding</w>
Comm ittee</w>
r s</w>
qu e</w>
b est</w>
particul ar</w>
e very</w>
g es</w>
li on</w>
t y
it al</w>
meas ures</w>
pro f
d el
or t</w>
CO N
ex peri
bas ed</w>
c li
b oo
hel p</w>
th ough</w>
sm all</w>
ac y</w>
A u
le ad
comm on</w>
leg al</w>
p er</w>
agre ement</w>
c ity</w>
al th</w>
citiz ens</w>
con c
ap p
ate ly</w>
s s</w>
in a</w>
busin ess</w>
l ing</w>
ener gy</w>
suc c
disc us
b a
gi ve</w>
o p</w>
ne t</w>
ac coun
are as</w>
acc ess</w>
ad di
O ur</w>
us ing</w>
g row
est ab
O n
necess ary</w>
pl ay
his tor
ens ure</w>
p i
as s</w>
CON JP</w>
th ree</w>
tech nolo
n ext</w>
m ul
f ar</w>
U H</w>
si c</w>
proble m</w>
a st
M o
o s</w>
N e
ti ci
n ess</w>
fe w</w>
b ack</w>
re e
lar ge</w>
ever y
RB S</w>
provi de</w>
in ing</w>
sec urity</w>
off er</w>
l s</w>
wh ile</w>
ke y</w>
w ar
emplo y
inc reas
rec ei
g a
s w
tex t</w>
il ities</w>
d ate</w>
fol low
aga in</w>
as k</w>
pro ce
is ed</w>
comp any</w>
t ow
proble ms</w>
er i
fur ther</w>
te m
v ote</w>
op port
si bility</w>
h er</w>
hal f</w>
f il
1 ;</w>
&#9 1;</w>
prin ci
compe ti
er ing</w>
3 ;</w>
&#9 3;</w>
sh all</w>
co operation</w>
b en
wh y</w>
O n</w>
es p
in es</w>
ob jec
gi ven</w>
ini ti
am end
w ard</w>
A ll</w>
li fe</w>
d y</w>
comp an
ul es</w>
la w</w>
inv ol
h ear
h owever</w>
ear ch</w>
g g
t om
pri v
leg is
d ow
u al</w>
u es</w>
g roup</w>
L i
in st
sp ec
h ope</w>
te ly</w>
re al</w>
loc ated</w>
stra te
in f
tr ac
ge ther</w>
an n
ous ly</w>
ad d
n am
d ly</w>
divi du
e ty</w>
om en</w>
s ing</w>
i ous</w>
nee ds</w>
str y</w>
be g
in ten
ha pp
r y</w>
comm un
Uni ted</w>
D e
st ate</w>
g lob
ig n</w>
E x
di d</w>
gu ar
al ways</w>
en ing</w>
re at
wor king</w>
o d</w>
protec tion</w>
re co
d own</w>
W ith</w>
f av
T o</w>
in dividu
l it
D i
pro m
produc tion</w>
l ab
s ure</w>
am p
ic a</w>
por te
ap pe
pl ac
bet ter</w>
A mer
tor s</w>
ment al</w>
h u
con sum
G roup</w>
Th ey</w>
An d</w>
fi el
ir d</w>
a ff
A t</w>
Comm unity</w>
m it</w>
Wh at</w>
d ri
lo g
M rs</w>
st ing</w>
dre n</w>
c ent
ful l</w>
com b
ver s
or ities</w>
pow er</w>
cur rent</w>
f ri
to gether</w>
mo der
e qui
fun c
ur al</w>
whe ther</w>
ma king</w>
si a</w>
our ces</w>
rap porte
2 0</w>
feren ce</w>
tra de</w>
al low
particul arly</w>
ter ms</w>
pres ent</w>
we e
s olu
li ght</w>
t ting</w>
d eli
po pul
b ur
t t
g en
tim es</w>
go ing</w>
s es</w>
as es</w>
g ent
cer tain</w>
a k</w>
diff icul
H ouse</w>
ex pres
bec ome</w>
b an
op en</w>
f f</w>
d ays</w>
st ay</w>
our s</w>
ou ra
issu es</w>
M ad
er v
M a
con tribu
resul t</w>
0 00</w>
lar g
h an
ar ound</w>
an other</w>
speci al</w>
c ris
condi tions</w>
in ed</w>
o ld</w>
an te
syste ms</w>
sa fe
do m</w>
e p</w>
s ing
wor k
i an</w>
decis ion</w>
Wh en</w>
al e</w>
Th ese</w>
s ha
chil dren</w>
pers on</w>
at ten
con nec
ARG 0</w>
d ge</w>
k es</w>
z e</w>
se e
b al
sec ond</w>
ro le</w>
w omen</w>
ch o
re le
th s</w>
i ons</w>
I s
tic s</w>
te st</w>
sec tor</w>
du ce</w>
5 0</w>
ro ss</w>
cur ren
d ou
se ver
go ti
in s</w>
vie ws</w>
S p
en jo
vis ion</w>
i m</w>
ec ted</w>
he alth</w>
bas is</w>
ve st
sel ves</w>
guar ante
it ted</w>
inte re
de fin
compan ies</w>
tur n</w>
indu stry</w>
estab lish
ne goti
mat ter</w>
who le</w>
loo k</w>
sta ur
e g
fo re
u b
R us
resp ect</w>
ef for
in ation</w>
vari ous</w>
S o
lis h</w>
ex ten
ou th</w>
d one</w>
contro l</w>
esp eci
pl an
p age</w>
bud get</w>
A c
govern ment</w>
W or
especi ally</w>
speci fic</w>
accoun t</w>
w in
pl ay</w>
m u
tw are</w>
str u
w ish</w>
tici p
C o
at h</w>
m ing</w>
F in
ent al</w>
wor d</w>
wa ter</w>
no v
con s
ur y</w>
M in
wi de</w>
min is
th ird</w>
R o
tic ally</w>
3 0</w>
ne t
d ation</w>
b ro
regi on</w>
call ed</w>
we b
employ ment</w>
an g
min u
experi ence</w>
rapporte ur</w>
cre ate</w>
res earch</w>
p ass
n ers</w>
inc re
enti al</w>
centr e</w>
loc ation</w>
ni fic
or ig
re ally</w>
a ti
de m
b el
dep end
tu ally</w>
ex is
e a
ir e</w>
do cu
re duc
in t</w>
reg ard</w>
tu al</w>
n on</w>
us e
res olution</w>
g ress</w>
ab ly</w>
mil lion</w>
T ur
sh ow
ta il
gent le
f y</w>
h and</w>
p en
contin ue</w>
some thing</w>
si mp
loc al</w>
so f
mar ke
program me</w>
ran ge</w>
ter m</w>
gra tion</w>
it self</w>
se qu
re ly</w>
ch i
ven tion</w>
st and</w>
en ter</w>
in tro
gentle men</w>
th ers</w>
u t
at t
th em
cris is</w>
a tional</w>
f ast</w>
direc tive</w>
a ter</w>
U S</w>
al iz
pro ject</w>
su ff
com men
me work</w>
ti l</w>
al i
fic ation</w>
maj or</w>
y s
ter r
op 1</w>
oo l</w>
sing le</w>
r ules</w>
M on
ta king</w>
p tion</w>
clo se</w>
manag ement</w>
le ast</w>
gener al</w>
n or
gu e</w>
conc lu
R Q</w>
tra di
fe at
SBA RQ</w>
jec ts</w>
mat eri
re li
t un
t ot
ab o
sever al</w>
glob al</w>
est s</w>
Ger man</w>
us ti
know n</w>
al o
be au
c ha
T reat
lan gu
F P</w>
en ted</w>
g ing</w>
sub ject</w>
c am
Ger many</w>
ess es</w>
follow ing</w>
p ack
star t</w>
of ten</w>
tow ards</w>
in vest
R i
reco g
institu tions</w>
p ic
Treat y</w>
- of</w>
Mad am</w>
U n
on ce</w>
environ ment</w>
fac e</w>
ben ef
G u
v al</w>
G o
er n</w>
p ay
for ward</w>
enc es</w>
a ir</w>
achi ev
ag ree</w>
trans port</w>
exc ell
wel come</w>
in e
n er
tu res</w>
ar s</w>
N o
com for
can not</w>
sup p
as ed</w>
G re
mon ey</w>
th ings</w>
a way</w>
par ticip
c y</w>
w are</w>
es sion</w>
9 1</w>
con tain
commun ic
h ol
ment ation</w>
de l</w>
th ank</w>
vi ties</w>
l a</w>
incre ase</w>
grow th</w>
a id</w>
B o
an y
d r
f ree
w r
eff ici
moder n</w>
w al
N FP</w>
fam ily</w>
con struc
of f</w>
po l
con f
opport unity</w>
fiel d</w>
it ing</w>
produc t</w>
b il
ex tre
N o</w>
de f
pl es</w>
wor ks</w>
individu al</w>
technolo gy</w>
re staur
ra ther</w>
li es</w>
P ol
res ources</w>
ic s</w>
lis t</w>
ag r
co m</w>
S ch
M embers</w>
im p
f ood</w>
for ms</w>
ti al</w>
str ic
un til</w>
sof tware</w>
c all</w>
at s</w>
appro ach</w>
200 9</w>
be half</w>
sig nific
lit tle</w>
ne w
v ement</w>
hi m</w>
f ound</w>
pr ice</w>
I tal
H e</w>
ro w</w>
propos als</w>
el s</w>
er y</w>
acti vities</w>
f ish
p rec
amend ments</w>
ra tic</w>
d om
inte rest</w>
f oc
val ue</w>
la dies</w>
ren g
1 5</w>
or ies</w>
priv ate</w>
fra mework</w>
e as
y et</w>
qu ite</w>
custom ers</w>
econom y</w>
in ion</w>
Q u
N or
ar m
excell ent</w>
d eci
vi ol
B ar
e ting</w>
Ch ina</w>
peri od</w>
St ate</w>
pers onal</w>
ic k
e duc
m es</w>
g ar
le t</w>
1 2</w>
ter min
es ti
provi ded</w>
r acy</w>
dis t
ha ving</w>
ic an</w>
s olution</w>
sh ort</w>
effec tive</w>
m embers</w>
ong er</w>
requi re
at or</w>
appro pri
safe ty</w>
adop ted</w>
al low</w>
an im
ch ec
is ation</w>
f le
mi ght</w>
com es</w>
pos e</w>
ver sion</w>
st reng
for ce</w>
re l
contin u
pro gress</w>
g rou
B e
p t</w>
a in</w>
poin ts</w>
agr icul
op inion</w>
en ed</w>
S o</w>
legis lation</w>
co sts</w>
l ack</w>
am ong</w>
organ iz
h ome</w>
reas on</w>
buil ding</w>
S IN
fav our</w>
us es</w>
P al
pro per
t own</w>
tion ed</w>
inclu de</w>
vi a</w>
m ember</w>
tech n
de ed</w>
bo dy</w>
IN T
re commen
to p</w>
st ud
es sion
ch all
t our
wor ds</w>
e qu
polic ies</w>
con fi
abo ve</w>
h ouse</w>
f l
oo k</w>
v ity</w>
B er
respon sibility</w>
concer ned</w>
o thers</w>
ec ts</w>
com ing</w>
p ing</w>
en ta
man u
a z
t ar
le ft</w>
ag o</w>
in stru
il i
A d
difficul t</w>
du e</w>
F e
cont ent</w>
c el
ma kes</w>
ti vely</w>
s ol
SIN V</w>
pro jects</w>
st y
li g
L e
atten tion</w>
or i
import ance</w>
resul ts</w>
applic ation</w>
am oun
E U
soci ety</w>
ver s</w>
reg ar
T o
tre at
vo ted</w>
grou ps</w>
exc lu
per f
cer tain
ur o</w>
gre ater</w>
as p
is ts</w>
strate gy</w>
C entr
ou ght</w>
simp ly</w>
ar ri
mo d</w>
on es</w>
fun dam
pr is
Th e
Af ter</w>
por ted</w>
x im
environ mental</w>
princi ple</w>
desig n</w>
d ure</w>
ot ing</w>
char ac
ol s</w>
dow n
comple te</w>
intro duc
ques tions</w>
addi tion</w>
P e
P o
en ds</w>
On e</w>
INT J</w>
provi des</w>
. com</w>
sh ow</w>
k ind</w>
b ed</w>
de al</w>
y oun
S e
in nov
s ci
ar t</w>
ad minis
e ly</w>
c la
web site</w>
sta ff</w>
nat ure</w>
col lec
anc ed</w>
succ ess
stand ards</w>
ste p</w>
au tom
auth orities</w>
L a
1 1</w>
enjo y</w>
ro ad</w>
0 0
cli m
cle arly</w>
so li
re ad</w>
consid er
m or
me ly</w>
eas y</w>
en ding</w>
beau ti
dis tribu
air s</w>
i te
en ter
respon sible</w>
sh e</w>
regul ation</w>
pr ac
gr ound</w>
comm it
R om
direc tly</w>
at ors</w>
su sta
b on</w>
cont act</w>
le ar
o l</w>
H e
cri min
chan ges</w>
minu tes</w>
ex per
un d</w>
achi eve</w>
ish ed</w>
si b
i gh
rec ent</w>
orig in
re main
pp ed</w>
tic le</w>
me tho
tra ining</w>
le dge</w>
m oun
o re
cul tural</w>
me eting</w>
y s</w>
b ri
manu fac
gra ph
ser ious</w>
p ages</w>
9 3</w>
s al
T ra
x i
m ach
propos ed</w>
prof ession
requi red</w>
ris k</w>
ess ential</w>
S u
d ers</w>
En g
techn ical</w>
or ding</w>
pos ed</w>
c o</w>
1 8
d on</w>
us er</w>
nat ural</w>
li ve</w>
intere sts</w>
ci r
min d</w>
l l
Wor ld</w>
O ff
con tr
al ong</w>
m er</w>
struc ture</w>
de red</w>
ac com
inter nal</w>
de tail
sp a
regi ons</w>
sta te
an ks</w>
ate g
ar ity</w>
p at
curren tly</w>
20 10</w>
l onger</w>
v ic
id enti
gi es</w>
democ racy</w>
F r
stan ding</w>
f oun
add ress</w>
Inter net</w>
a part
br ing</w>
indu stri
in depend
200 8</w>
mon ths</w>
mo ve</w>
Rus sia</w>
se a</w>
ho li
p ast</w>
mul ti
J o
re ach
j usti
rela ted</w>
oo ds</w>
F ir
imple mentation</w>
st u
p es</w>
free dom</w>
an al
vers ity</w>
invol ved</w>
ea si
c are</w>
Af r
tor y</w>
car ri
P ri
pe ace</w>
solu tions</w>
amp ;</w>
& amp;</w>
m om
beauti ful</w>
par ties</w>
loo king</w>
st re
competi tion</w>
ak fast</w>
is ter</w>
effor ts</w>
r oun
democ ratic</w>
M an
cre di
them selves</w>
f el
fe el</w>
ei ther</w>
require ments</w>
nee ded</w>
t ation</w>
f our</w>
ve red</w>
hear t</w>
ing ly</w>
en ough</w>
W i
ac tive</w>
t ary</w>
am p</w>
marke ts</w>
develop ed</w>
lo t</w>
U S
m itted</w>
C P</w>
EU R</w>
pre v
vi ous</w>
con stitu
S a
&apos; t</w>
posi tive</w>
co st</w>
ord in
negoti ations</w>
cent ury</w>
h on
it ary</w>
histor y</w>
ic ally</w>
c ateg
youn g</w>
up on</w>
c ases</w>
st ly</w>
te red</w>
s po
i ght</w>
r un
ev ents</w>
D ec
d en
r ate</w>
an sw
tak es</w>
f ail
mon it
ac tions</w>
W e
1 .
O r
appropri ate</w>
dou b
V i
P le
extre mely</w>
sta tes</w>
or ing</w>
c ed</w>
ne ver</w>
at er
si m
consid er</w>
Presid ency</w>
t ent</w>
f er
fundam ental</w>
direc t</w>
develop ing</w>
f lo
elec tr
diffe ren
S ec
di o</w>
Go vern
ron t</w>
str ong</w>
in dic
n e</w>
c al
t ab
li ed</w>
net work</w>
alo gue</w>
Di rec
ke ep</w>
di g
S erv
vi l</w>
fun ds</w>
ev ent</w>
ari an</w>
P er
for man
adv ant
fore ign</w>
lin es</w>
S y
d ence</w>
regi onal</w>
B el
f er</w>
M e
for tun
ni ght</w>
er ous</w>
w ar</w>
vis it</w>
ex pl
col le
on line</w>
200 7</w>
sp ace</w>
h and
l in</w>
de st
adminis tra
F rom</w>
impro ve</w>
langu age</w>
un e</w>
Ple ase</w>
a im
educ ation</w>
ke y
S w
comp u
ple ase</w>
tran spa
tr ue</w>
se em
clim ate</w>
pr acti
sh op
h ard</w>
gu ests</w>
lic k</w>
p ay</w>
P or
12 4
g l
eff ect</w>
w rit
M E
centr al</w>
inst all
th us</w>
as ter</w>
Inter national</w>
hel d</w>
e f</w>
w w
terr or
imple men
Ne w</w>
work ers</w>
ha ps</w>
enc oura
v ill
requ est</w>
tot al</w>
st e</w>
sh are</w>
ac tually</w>
ec h</w>
ru n</w>
se en</w>
d i</w>
c ar</w>
succ ess</w>
medi a</w>
susta in
cre ated</w>
off ici
ren ch</w>
proce dure</w>
acc ording</w>
ide a</w>
ist ance</w>
L is
cor rec
under stand</w>
te mp
u ly</w>
accep t</w>
ne ar</w>
con sul
men tioned</w>
de termin
addi tional</w>
124 ;</w>
&# 124;</w>
h or
maj ority</w>
si an</w>
im medi
s er</w>
ty pe</w>
si tes</w>
me et</w>
al most</w>
ec h
fac ilities</w>
pr ices</w>
m ess
so on</w>
le ad</w>
c op
f ile</w>
en sive</w>
ARG 2</w>
c at
z ed</w>
te am</w>
per forman
ta x</w>
every thing</w>
gh out</w>
b or
po ten
dra w
con cep
A s
ar ti
200 0</w>
j ud
it er
des cri
Fr ance</w>
log ical</w>
our ce</w>
er ies</w>
li ving</w>
par ts</w>
ge ts</w>
C our
ch es</w>
R es
b ar</w>
recei ve</w>
su gg
v ol
s on</w>
F rench</w>
am bi
un g
ho ld</w>
el ess</w>
as soci
fi ve</w>
2 5</w>
he ad</w>
st ation</w>
gi c</w>
con text</w>
inclu ded</w>
rela tions</w>
c are
ear ly</w>
do ing</w>
2 4</w>
char ge</w>
M ed
st at
con sequ
av o
colle ag
re form</w>
di a</w>
guarante e</w>
stand ard</w>
certain ly</w>
ci es</w>
et c</w>
ap er</w>
n a</w>
ex cep
pl an</w>
communic ation</w>
a ware</w>
cap ital</w>
ph one</w>
1 0
ar chi
desig ned</w>
men d
know ledge</w>
boo k</w>
or d</w>
lead ing</w>
invest ment</w>
ste ad</w>
te ls</w>
er a</w>
Tur key</w>
amoun t</w>
p resid
uni que</w>
d le</w>
mil itary</w>
par ty</w>
B ri
fri end
concer ns</w>
li ber
h y
signific ant</w>
b ack
program mes</w>
1 00</w>
exis ting</w>
mu sic</w>
ter nal</w>
lo ad</w>
la ter</w>
situ ated</w>
wee k</w>
k m</w>
sa tis
te le
alis ation</w>
lan ds</w>
ra tes</w>
comm ittee</w>
Govern ment</w>
ec u
ad d</w>
pres s</w>
agre ements</w>
it ors</w>
re ach</w>
co ver</w>
de mon
progra m</w>
a ve</w>
throu ghout</w>
h er
d ings</w>
fam ous</w>
fin al</w>
A ff
uc le
out side</w>
p ment</w>
decis ions</w>
de al
us ers</w>
Ch ris
comm er
writ ing</w>
concer ning</w>
conf lic
ob s</w>
connec tion</w>
ord ers</w>
con ven
accom mo
t ook</w>
A m
is ing</w>
an ti
k er</w>
ta x
imp act</w>
reas ons</w>
ac ross</w>
at ory</w>
er ia</w>
e red</w>
bo ard</w>
app ly</w>
sur roun
beg in
t on</w>
de man
custom er</w>
buil t</w>
ad s</w>
repres enta
L u
al though</w>
initi ative</w>
alis t</w>
feat ures</w>
mis sion</w>
no thing</w>
popul ation</w>
bi g</w>
Amer ican</w>
objec tives</w>
comm unity</w>
be ach</w>
qu ick
r ing</w>
as h</w>
Is ra
ch oo
y er</w>
gr at
h ours</w>
Amer ica</w>
j obs</w>
fa ir</w>
r ac
B y</w>
i al</w>
por ting</w>
vi de
ec han
4 0</w>
restaur ant</w>
1 3</w>
establish ed</w>
Ho w</w>
mom ent</w>
t al</w>
se ar
Lis bon</w>
re main</w>
as h
t op
practi ce</w>
e an</w>
performan ce</w>
comple tely</w>
em er
val ues</w>
stan ces</w>
tradi tional</w>
Au stri
se par
ph ot
vel s</w>
agricul tural</w>
W in
de v
ucle ar</w>
ba sic</w>
comfor table</w>
sen se</w>
T V</w>
F or
po ol</w>
pers on
c ru
regar ding</w>
Off ice</w>
st age</w>
objec tive</w>
li gh
fi ght</w>
b l
sty le</w>
cap ac
chec k</w>
bec om
grat ul
vi r
cul ture</w>
concer n</w>
part ners</w>
un ities</w>
200 6</w>
ide al</w>
Cour t</w>
mo del</w>
pa in</w>
devel op</w>
ph as
sp here</w>
C ar
fle xi
le t
ther n</w>
bre akfast</w>
tr a</w>
con fir
M y</w>
g ran
su per
benef it</w>
end a</w>
p an
min im
a red</w>
Aff airs</w>
inte gration</w>
prom ise</w>
a im</w>
E C
e uro</w>
2 .
pack age</w>
proc ess
T a
mo tion</w>
dem and</w>
L et</w>
S ince</w>
allow s</w>
re ports</w>
profession al</w>
e th
inf lu
g ame</w>
inclu des</w>
w ise</w>
t a</w>
ven ess</w>
mo di
fortun ately</w>
c ard</w>
c ra
origin al</w>
li m
enti re</w>
A mend
ne l</w>
in deed</w>
co he
vis ions</w>
it able</w>
recei ved</w>
apos; t</w>
m echan
6 0</w>
ac e
at trac
de si
construc tion</w>
j u
sp i
s end</w>
recog ni
g am
con gratul
dow s</w>
achiev ed</w>
treat ment</w>
th y</w>
di alogue</w>
g oods</w>
func tion</w>
we b</w>
F ur
an u
quick ly</w>
friend ly</w>
o s
1 -of</w>
seem s</w>
ARG 1-of</w>
al ter
S outh</w>
me an</w>
Fin ally</w>
key word</w>
govern ments</w>
d a</w>
applic ations</w>
prev ent</w>
ma il</w>
re h
on ic</w>
ple as
foc us</w>
cho ice</w>
ec e</w>
hi bi
c y
pur ch
jo b</w>
materi al</w>
n uclear</w>
equi pment</w>
perf ect</w>
A ir
pub lish
C ol
w at
ic k</w>
C an
l d
op 2</w>
m a</w>
an ish</w>
si ze</w>
li mi
success ful</w>
b an</w>
tion ing</w>
contain s</w>
st op</w>
bu s</w>
poten tial</w>
consum ers</w>
in o</w>
em phas
A p
amend ment</w>
b ra
equi pped</w>
ur g
reg is
si mil
19 8
m ag
princi ples</w>
every one</w>
rele v
fil es</w>
sim ple</w>
bel ow</w>
cir c
im age</w>
agre ed</w>
me an
sci enti
re stric
vi ously</w>
sustain able</w>
1 4</w>
ab solu
b order</w>
L S</w>
D is
B al
tra ff
limi ted</w>
increas ed</w>
im e</w>
tem por
re turn</w>
le vels</w>
rec ently</w>
Ar ticle</w>
organ is
holi day</w>
ic h
H ere</w>
d ro
pres ented</w>
bal ance</w>
M ay</w>
commit ment</w>
answ er</w>
suff ici
U CP</w>
ay ing</w>
D em
d ang
hu ge</w>
1 8</w>
begin ning</w>
carri ed</w>
I I</w>
J une</w>
G ener
fol low</w>
plac ed</w>
w on
soli d
ch ed</w>
st er
who se</w>
en larg
chall eng
at temp
per haps</w>
r us
a tic</w>
mat ters</w>
E ast</w>
h ic
ser ies</w>
bur g</w>
, 000</w>
direc tion</w>
D E</w>
hu man
P h
high ly</w>
c lu
pre pa
The refore</w>
do or</w>
en ab
as ked</w>
prom ote</w>
en able</w>
C or
1 7
S econ
jo int</w>
D ev
un d
defin i
s mo
h ind</w>
high er</w>
M ic
itte n</w>
pos sibility</w>
par liam
ad ded</w>
asp ects</w>
pur pose</w>
A n</w>
oc cu
wal k</w>
ten ce</w>
x ed</w>
an ces</w>
ill s</w>
w an
ob lig
no te</w>
o graph
li er</w>
compu ter</w>
t on
vis i
av ing</w>
effec ts</w>
ner ship</w>
increas ing</w>
mar k</w>
c rit
cre ation</w>
O c
har mon
anc ing</w>
off ice</w>
et ary</w>
al u
opport unities</w>
Eng lish</w>
dra w</w>
respon se</w>
ti veness</w>
co vered</w>
pres sure</w>
res er
capac ity</w>
F ran
show s</w>
alis m</w>
inter net</w>
si dered</w>
ve hic
pre vious</w>
o il</w>
rou ght</w>
th anks</w>
sh own</w>
ex change</w>
P r
se tting</w>
an a</w>
t i</w>
enlarg ement</w>
g s</w>
el l</w>
con sidered</w>
re duce</w>
P l
comple x</w>
tis h</w>
200 5</w>
J ap
spe ak</w>
clo sed</w>
S h
1 6</w>
fun ding</w>
ex ternal</w>
ren cy</w>
m b
pri ority</w>
s cre
be hind</w>
reach ed</w>
choo se</w>
plac es</w>
sig n</w>
er ship</w>
pos sib
re pe
prepa red</w>
ci vil</w>
m y
be d
N ow</w>
ass ess
S pain</w>
C A
r ich</w>
re views</w>
recog n
se tt
sub si
S i
E R
pre ci
li ance</w>
l and
mi gration</w>
form er</w>
S ome</w>
f ront</w>
protec t</w>
provi ding</w>
at ure</w>
v a</w>
industri al</w>
supp ly</w>
S ep
sp ac
gu est</w>
z a</w>
ci d
c enter</w>
relev ant</w>
l er</w>
dou ble</w>
ill ing</w>
c ame</w>
at mo
bil lion</w>
comp reh
Afr ica</w>
la test</w>
r an</w>
st ar</w>
le y</w>
k en</w>
materi als</w>
hel p
consum er</w>
con duc
ach es</w>
deci ded</w>
oun ds</w>
Ber lin</w>
read ing</w>
G i
ther more</w>
mo vement</w>
sup ported</w>
accep table</w>
ch e
z er
sel ec
g en</w>
tra vel</w>
c ause</w>
Ital y</w>
remain s</w>
ass istance</w>
acc ord
a tives</w>
G e
na tion
produc ed</w>
commer cial</w>
L in
f arm
e y
O f</w>
ne igh
Con vention</w>
k a</w>
em is
st o
Re g
fur n
200 4</w>
Dec ember</w>
I S
effici ent</w>
ul t</w>
Centr al</w>
emplo ye
ill ed</w>
regul ations</w>
l ate</w>
ru le</w>
tem ber</w>
gi ves</w>
categ ories</w>
flo or</w>
it ation</w>
gu id
add res
our selves</w>
independ ent</w>
a de
12 4</w>
ch ing</w>
ter rit
ann oun
he ad
on a</w>
s ource</w>
s cri
iter ran
cre ating</w>
st ability</w>
t in
re lation</w>
h ous
ar ing</w>
reg ards</w>
b our
ba th
sear ch</w>
tr ic
easi ly</w>
pre par
K o
j our
Sep tember</w>
play ed</w>
gra ted</w>
sub mitted</w>
tain ed</w>
I T</w>
a king</w>
ple ased</w>
th ous
b ar
ent ation</w>
E S
pa ti
pro duce</w>
ad ap
Dev el
iz ed</w>
discus sion</w>
b it</w>
ref er
m al</w>
s ound</w>
charac ter
b rought</w>
bi o
du res</w>
T ran
proper ty</w>
iterran ean</w>
200 3</w>
all s</w>
res ted</w>
re over</w>
detail s</w>
de g
la un
Devel op
d on
r y
V al
le ave</w>
acti vity</w>
No v
ac ts</w>
an o</w>
fish ing</w>
na tive</w>
re a
ar ies</w>
ap poin
f as
popul ar</w>
ys is</w>
a il</w>
com promise</w>
Fir st</w>
simil ar</w>
B ank</w>
rela tion
sum mer</w>
B us
ad ver
reli gi
Re public</w>
s ou
b loc
ex plo
ite m</w>
V er
ste ps</w>
J anu
proce dures</w>
lo gy</w>
k ers</w>
co de</w>
. .</w>
sa fe</w>
en se</w>
mess age</w>
in stead</w>
po ver
W est
contribu tion</w>
vide o</w>
1 5
A N
state ment</w>
docu ment</w>
Janu ary</w>
archi tec
ho tels</w>
viol ence</w>
pro visions</w>
pub lic
ex ecu
Med iterranean</w>
to ber</w>
ari a</w>
accommo dation</w>
si x</w>
s en</w>
te ll</w>
I ra
la tive</w>
c ou
ac ks</w>
resp ec
em p
ag ed</w>
d ates</w>
res ol
sid es</w>
gi ving</w>
Bu d
ma xim
con ference</w>
atmo sphere</w>
low er</w>
st oc
Mar ch</w>
lab our</w>
ex er
Dem oc
g er</w>
medi um</w>
Min ister</w>
m ot
credi t</w>
stat us</w>
or row</w>
d y
crit eria</w>
allow ed</w>
distribu tion</w>
0 .
A g
pur su
m ed</w>
im pres
spe ed</w>
lin k</w>
I m
instru ments</w>
dra ft</w>
f ar
manufac tu
Bri tish</w>
larg est</w>
is land</w>
wr itten</w>
T er
Oc tober</w>
ta il</w>
c ross</w>
m em
To day</w>
y ond</w>
200 1</w>
shi ps</w>
mi d
effor t</w>
it ure</w>
equ al</w>
dam age</w>
cl ass</w>
concep t</w>
S er
transpa rency</w>
ag ing</w>
deg ree</w>
r ound</w>
sh or
stud y</w>
Serv ice</w>
t ask</w>
ac i
Ri ghts</w>
star ted</w>
st or
dis e
L o
D o
expres s</w>
sk i</w>
comp on
e ts</w>
F i
ag enda</w>
n or</w>
t an
qu ali
mo d
benef its</w>
sig ned</w>
d ru
pos es</w>
intere sting</w>
pa id</w>
elec tions</w>
su b</w>
te l
li ke
c k</w>
e vi
g as</w>
ar gu
t ou
solid arity</w>
b s</w>
part ner</w>
U N</w>
speci fic
pover ty</w>
fin ally</w>
Ital ian</w>
in fra
dis crimin
docu ments</w>
vari ety</w>
pay ment</w>
sec tion</w>
u ally</w>
ser ver</w>
con v
legis lative</w>
an ia</w>
form ed</w>
inte grated</w>
op tion</w>
B i
S we
no ti
Nor th</w>
h ab
ul ation</w>
terror ism</w>
oper ating</w>
buil d</w>
for ces</w>
alis ed</w>
ver age</w>
pr ise</w>
s us
consequ ences</w>
ti an</w>
challeng es</w>
grow ing</w>
C a
Pal est
re ality</w>
Gener al</w>
vic ti
con ver
P la
requ ire</w>
J uly</w>
T E
ser ve</w>
ev alu
Sp anish</w>
-0 2</w>
s aying</w>
s ent</w>
d ical</w>
as tic</w>
conflic t</w>
c lick</w>
b ru
re view</w>
T i
ref lec
1 6
Fur thermore</w>
y ed</w>
app lied</w>
el ements</w>
ail y</w>
ist an</w>
ann ual</w>
t ool</w>
Par ty</w>
mon th</w>
y a</w>
colleag ues</w>
con trac
tain s</w>
go es</w>
ty pes</w>
ch en</w>
use um</w>
me t
auth or
1 4
200 2</w>
employe es</w>
immedi ately</w>
ant i</w>
bec ame</w>
avo id</w>
oo m</w>
tal k</w>
Por tu
a wa
b ase</w>
sch ool</w>
ar ran
re r</w>
effici ency</w>
estab lish</w>
prec is
advant age</w>
en ge</w>
histor ical</w>
tom orrow</w>
congratul ate</w>
Direc tive</w>
D uring</w>
N ational</w>
anal ysis</w>
alis ts</w>
M any</w>
proc esses</w>
se ts</w>
pos t</w>
re mo
chan ged</w>
ast ern</w>
ade qu
se ly</w>
1 7</w>
de ath</w>
ent ary</w>
en cies</w>
Al though</w>
s or
ma tic</w>
pl at
offici al</w>
en h
organis ations</w>
li ves</w>
implemen ted</w>
happ y</w>
inte l
serv ed</w>
Nov ember</w>
be yond</w>
an ds</w>
high est</w>
tempor ary</w>
k it
bro ad
tur ing</w>
enc ed</w>
s port</w>
ti tu
cru cial</w>
ge tary</w>
Amend ment</w>
gu i
ne g
S tr
s em
s qu
3 .
me t</w>
C as
prac tical</w>
Develop ment</w>
rel ating</w>
pers ons</w>
monit oring</w>
car ry</w>
man ner</w>
requi res</w>
to ols</w>
F ri
oc ca
par k</w>
D es
circ um
l am
num erous</w>
S al
lin ks</w>
ther wise</w>
instru ment</w>
an tly</w>
suffici ent</w>
apart ment</w>
aliz ed</w>
f ru
P ub
pro mis
reduc tion</w>
Ch ar
al ities</w>
p ass</w>
minim um</w>
re t</w>
p ical</w>
N A
Win dows</w>
d ations</w>
dri ve</w>
Isra el</w>
dist ance</w>
ur ch</w>
wor ld
ta tions</w>
n ice</w>
institu tional</w>
ac qu
tim ate</w>
d in
X X</w>
down load</w>
su n
w ine</w>
re ference</w>
M al
acc ession</w>
il s</w>
ra ised</w>
ul ar</w>
P i
res erv
ide as</w>
gra p
th eless</w>
b ers</w>
L oc
d aily</w>
qu ar
exp ect</w>
use ful</w>
bi an</w>
19 7
b ile</w>
wee ks</w>
farm ers</w>
8 0</w>
f requ
S te
O b
v oting</w>
cam pa
streng th
fil m</w>
ex tent</w>
f re
wa ste</w>
po or</w>
F un
a vi
restaur ants</w>
vill age</w>
star ting</w>
fri ends</w>
wan ted</w>
ad a</w>
compreh ensive</w>
do w</w>
m ous</w>
ol f</w>
dig ital</w>
B ra
Y our</w>
sec ure</w>
c ent</w>
H i
e di
technolo gies</w>
chil d</w>
histor ic</w>
air port</w>
form ation</w>
cu t</w>
demon stra
accord ance</w>
pri l</w>
sec tors</w>
L a</w>
A pril</w>
pow ers</w>
R E
pow er
any thing</w>
mo bile</w>
po st
beg in</w>
cla im
ca used</w>
justi ce</w>
ra ti
1 9</w>
men tion</w>
ex ac
can di
publish ed</w>
off ering</w>
t as
fin e</w>
off ered</w>
Ch in
c ro
des p
l ess
iz ation</w>
like ly</w>
r ise</w>
G en
g ot</w>
E ven</w>
si vely</w>
rela x
v o</w>
H er
maxim um</w>
th re
lu x
conven i
th ought</w>
some times</w>
inter pre
spe ak
h op
cle an</w>
scienti fic</w>
lab or
vie w
ro r</w>
chall enge</w>
is es</w>
busin esses</w>
trans fer</w>
so ft</w>
ne ws</w>
esti g
re new
ater al</w>
ist ers</w>
con om
in ess</w>
dr in
B a
sc ale</w>
strate gic</w>
prob ably</w>
sal es</w>
he al
West ern</w>
mach ine</w>
f res
al one</w>
lo ad
tra vel
op tions</w>
oura ble</w>
metho ds</w>
imple ment</w>
E conom
tur ned</w>
nam ely</w>
st able</w>
gen u
A L
tr u
re land</w>
u ti
ex tra</w>
Wh ile</w>
z one</w>
re by</w>
desp ite</w>
reas on
doub t</w>
u x</w>
Secon dly</w>
sh op</w>
por ate</w>
it arian</w>
metho d</w>
20 0</w>
inte rested</w>
R u
re m
apart ments</w>
adop t</w>
appe ar</w>
c le</w>
G ar
lear n</w>
I reland</w>
sugg es
se as
mar ks</w>
m us
exer c
199 9</w>
l y
D o</w>
cli ents</w>
world wide</w>
b orders</w>
s ession</w>
gra m
absolu tely</w>
f all</w>
e e</w>
accep ted</w>
2 1</w>
un a</w>
F und</w>
langu ages</w>
sy m
tr ying</w>
lead ers</w>
inc or
ch ance</w>
Chin ese</w>
inv estig
aff ected</w>
Austri a</w>
di men
oper ate</w>
el ines</w>
initi atives</w>
O p
g y
M or
process ing</w>
innov ation</w>
influ ence</w>
Con stitu
di e</w>
w ards</w>
innov ative</w>
z i
f ying</w>
c anc
Mo reover</w>
tran si
ri t</w>
sc ope</w>
Th ank</w>
op tim
r a</w>
pa in
wor ked</w>
representa tives</w>
deman ds</w>
e .
op en
moun tain</w>
Sy ste
cer ti
I C
rele ase</w>
pris es</w>
T H
ap preci
play ers</w>
tra in</w>
li ghts</w>
expres sed</w>
call s</w>
p ho
I M
im ming</w>
mor ning</w>
ex hibi
fiel ds</w>
Con ference</w>
hear d</w>
sub stan
cohe sion</w>
a ther</w>
exp an
lo st</w>
il legal</w>
o logical</w>
inten ded</w>
S k
Rus sian</w>
s av
inte gr
qui et</w>
h om
jo in</w>
over all</w>
n ation</w>
sc en
ci ties</w>
ser i
organiz ation</w>
M id
he av
im ages</w>
f ish</w>
ber g</w>
ep ing</w>
5 00</w>
an ci
Fe der
tal king</w>
sec u
m ig
bi a</w>
a tically</w>
ig n
contr act</w>
L A
appro ved</w>
comm itted</w>
Ira q</w>
cri tical</w>
re forms</w>
for ced</w>
ban ks</w>
op ening</w>
A ra
confi dence</w>
la ws</w>
pro per</w>
E C</w>
v ital</w>
relation ship</w>
tra tion</w>
st ated</w>
I s</w>
play er</w>
main tain</w>
alter native</w>
S tu
b in
struc tural</w>
r o</w>
il ies</w>
gre en</w>
aliz ation</w>
pl ans</w>
Man ag
pp ing</w>
reg ime</w>
curren cy</w>
si zed</w>
st ress</w>
ne y</w>
conclu sion</w>
A gre
le gi
s ports</w>
s la
bo x</w>
z z
anal y
gam es</w>
selec tion</w>
T e
pri orities</w>
g res
administra tion</w>
ti ous</w>
2 2</w>
c a</w>
R ec
O S</w>
1 3
B oo
cri me</w>
par king</w>
un employment</w>
hi c</w>
ur s</w>
L on
lar ity</w>
i tes</w>
Palest ini
is tic</w>
k o
tab led</w>
circum stances</w>
k in
adver tis
b at
tar get</w>
ge tting</w>
So ci
ph ys
pass eng
u n</w>
deci de</w>
sit ting</w>
increas ingly</w>
cri tic
main ly</w>
sc ap
cra ft</w>
tain ing</w>
co ordin
impro ved</w>
struc tures</w>
v ements</w>
N ations</w>
c k
v il
pe ace
h n</w>
victi ms</w>
ad es</w>
O R
w .
y our
emis sions</w>
competi tive</w>
ens uring</w>
b row
am a</w>
gh t
B ec
we ap
ad vis
Par k</w>
com par
vis itors</w>
On ly</w>
k ra
d ol
sen si
com ments</w>
part ment</w>
ho ste
run ning</w>
shop ping</w>
B re
Par is</w>
contribu te</w>
In deed</w>
b ig
2 7</w>
shop s</w>
reduc ed</w>
traff ic</w>
prac tic
plan ning</w>
go al</w>
minu te</w>
Pe ople</w>
wh om</w>
infra structure</w>
let ter</w>
fin ancing</w>
correc t</w>
your self</w>
ww w.
M il
su itable</w>
d am</w>
h un
ish es</w>
Pub lic</w>
vi g
exp ected</w>
encoura ge</w>
b ank</w>
per spec
particip ation</w>
effec tively</w>
lo g</w>
ARG 0
ARG0 -of</w>
ex ist</w>
agricul ture</w>
T ech
H ar
won der
em ail</w>
G r
Ch am
men u</w>
fel low</w>
mb H</w>
Sec urity</w>
fam ilies</w>
sw imming</w>
R oom</w>
en ded</w>
dat ab
gar den</w>
el eg
ord ination</w>
C u
am s</w>
pl ant</w>
me dic
h our</w>
S lo
b all</w>
Jap an</w>
s ays</w>
protec ted</w>
ver se</w>
S um
S an</w>
stre et</w>
Centr e</w>
specific ally</w>
ic y</w>
um s</w>
el se</w>
ra il
bud getary</w>
lo ss</w>
A b
val u
aim ed</w>
E N
defin ed</w>
C z
par ag
s ources</w>
sup ports</w>
re p
W est</w>
il ing</w>
st ore</w>
t ol
titu de</w>
stan tly</w>
re fu
introduc ed</w>
sh e
dy nam
is s</w>
In dia</w>
pol ice</w>
ti v
in s
discus s</w>
sec on
tric t</w>
I S</w>
comfor t</w>
autom atically</w>
t ren
ke ts</w>
under standing</w>
r ats</w>
M ore</w>
H ung
Ac cor
ev ening</w>
I ran</w>
discus sed</w>
G mbH</w>
part nership</w>
us ually</w>
refer red</w>
es tic</w>
deli very</w>
C ity</w>
del eg
tion ally</w>
f oo
precis ely</w>
cons ist
ris ks</w>
play ing</w>
assess ment</w>
si l
spe aking</w>
k ing
wr ong</w>
Lon don</w>
2 3</w>
per man
re feren
bath room</w>
b ot
U K</w>
posi tions</w>
electr onic</w>
fun d</w>
I ts</w>
R O
separ ate</w>
r ural</w>
il it
feat ure</w>
enter prises</w>
pl ants</w>
re jec
meas ure</w>
har d
discus sions</w>
b on
conv inc
power ful</w>
anim als</w>
w ants</w>
eng ine
Uni versity</w>
ent y</w>
ma p</w>
i or</w>
U kra
lo ve</w>
install ation</w>
C ha
develop ments</w>
Agre ement</w>
r ace</w>
l ect</w>
b ran
pur poses</w>
func tions</w>
detail ed</w>
ver si
repres ents</w>
tr ust</w>
I T
We b</w>
C i
ra ise</w>
adequ ate</w>
lin ked</w>
respon d</w>
discrimin ation</w>
C ro
becom ing</w>
at a</w>
manag ed</w>
exac tly</w>
collec tion</w>
Sw it
guid elines</w>
introduc tion</w>
lis ted</w>
streng then</w>
A S
j e
satis fac
ill a</w>
te ach
exten sive</w>
su s</w>
as y
in come</w>
7 0</w>
bro ad</w>
des er
Au g
Ro oms</w>
ur ation</w>
0 s</w>
iz e</w>
im migration</w>
C y
ga in</w>
ing u
foun ded</w>
administra tive</w>
is c
clo sely</w>
th reat
li mit</w>
thous ands</w>
pa ren
en try</w>
i ed</w>
bor n</w>
pre ven
qu anti
stud ents</w>
m ary</w>
Wh y</w>
o therwise</w>
terr ace</w>
rec ord</w>
wh ite</w>
condi tion</w>
beg an</w>
impro ving</w>
A sia</w>
repres ent</w>
cel e
c as
lu b</w>
str ong
b ad</w>
sup porting</w>
ish ing</w>
m ic
p ed</w>
exp ec
V en
A G</w>
deb t</w>
Com p
tour ist</w>
net works</w>
fish eries</w>
ear lier</w>
Fe bru
m un
ch e</w>
consider able</w>
c ot
il e
happ en</w>
sh o
wal king</w>
s outh</w>
Pol icy</w>
t led</w>
b ir
Gre ece</w>
du ty</w>
oper ations</w>
h ood</w>
B rus
Ge or
wor th</w>
Mid dle</w>
sy n
et ings</w>
Th en</w>
spe ech</w>
A T
co o
bu tt
competi tiveness</w>
regul ar</w>
n u
co ordination</w>
Febru ary</w>
A t
S tra
tr ack</w>
pro vision</w>
A C
op ened</w>
rel ate</w>
i ted</w>
comp ens
m as
in sur
n y</w>
follow ed</w>
E ach</w>
re member</w>
organ isation</w>
draw n</w>
th u
Bar cel
presid ency</w>
cl as
bo dies</w>
me dical</w>
9 0</w>
sel s</w>
di versity</w>
fac ing</w>
P C</w>
c ell
C ap
5 .
un g</w>
O N</w>
de fic
auth ority</w>
parliam entary</w>
v oc
Wi th
thin king</w>
p aper</w>
progra ms</w>
re rs</w>
M u
de dic
o se</w>
sel ected</w>
T w
p il
acc es
ep tion</w>
scre en</w>
Econom ic</w>
Swit zer
cl ass
sum mit</w>
B ul
cam era</w>
p ath</w>
proper ly</w>
So cial</w>
spi rit</w>
larg er</w>
P re
en or
pres ence</w>
i k
met res</w>
at ur
sugg est</w>
deal ing</w>
difficul ties</w>
land scap
anim al</w>
ref er</w>
beli ev
N ot</w>
poli tics</w>
m emb
G od</w>
ir s</w>
modi fied</w>
Al so</w>
on y</w>
w on</w>
subsi di
connec ted</w>
grap hic</w>
dest ro
tour ism</w>
J ust</w>
sp end</w>
ti vity</w>
E R</w>
cli ent</w>
exper ts</w>
ri gh
con tra
Brus sels</w>
marke ting</w>
est er
su g
F ore
he ar</w>
E m
t ack
enti rely</w>
M er
tradi tion</w>
contro l
mo de</w>
coun t</w>
te ll
Switzer land</w>
ch em
consider ation</w>
is tics</w>
im ag
mo del
sa ve</w>
sm all
w ood</w>
hous es</w>
exclu sive</w>
ordin ary</w>
cre te</w>
con ten
st a</w>
fac ilit
buil dings</w>
bu y</w>
un it</w>
v ac
gener ation</w>
ment ary</w>
compon ents</w>
v olu
Cz ech</w>
s y</w>
acc ur
U N
pho to</w>
st one</w>
comb at</w>
4 .
see m</w>
inform ed</w>
Aug ust</w>
w ent</w>
bu ff
lu m</w>
purch ase</w>
Un fortunately</w>
arran g
H am
suc ce
Pol and</w>
in side</w>
app lies</w>
pl en
h im
pro por
flexi bility</w>
Se a</w>
ac tual</w>
Barcel ona</w>
g ical</w>
we ak
il lu
rap h</w>
prom oting</w>
K ing
C re
gra du
dis h</w>
differen ce</w>
a verage</w>
dec or
orig in</w>
V is
Bec ause</w>
establish ment</w>
fres h</w>
pl a
stan ds</w>
Tur k
han ds</w>
ester day</w>
vehic les</w>
a th
E S</w>
pri or</w>
appe ars</w>
ri g
tech ni
def ence</w>
aim s</w>
t our</w>
e uro
pleas ant</w>
be ha
qu es</w>
fi xed</w>
I D
dom estic</w>
af ter
sch em
thre at</w>
Bel gi
wonder ful</w>
seri ously</w>
ga ve</w>
t ings</w>
re in
sel ect</w>
tele phone</w>
pol lu
pr e</w>
gener ally</w>
sa w</w>
practic es</w>
4 5</w>
me etings</w>
asp ect</w>
dom in
t ac
confi g
in ts</w>
comp ati
attemp t</w>
human itarian</w>
r .</w>
ri es</w>
ab ilities</w>
ack now
US A</w>
war m</w>
win ter</w>
ing ing</w>
ul ti
flexi ble</w>
adop tion</w>
con dem
my self</w>
any one</w>
s anc
implemen ting</w>
ite ms</w>
H uman</w>
a u</w>
ra tion</w>
fail ure</w>
b and</w>
reason able</w>
B ur
crimin al</w>
au di
ab il
nor mal</w>
tem per
lu e</w>
M us
num bers</w>
A T</w>
elec tion</w>
becom es</w>
S ub
F ree</w>
Fir stly</w>
J usti
de ep
e ing</w>
op position</w>
perf ec
st ance</w>
for get</w>
tic les</w>
est ate</w>
ran ts</w>
S he</w>
ty pical</w>
ac cid
el im
differen ces</w>
cle an
Am ster
ve re
to ld</w>
easi er</w>
mon etary</w>
c in
di ed</w>
mach ines</w>
co ff
cl ari
reduc ing</w>
seas on</w>
bal anced</w>
happ ened</w>
En viron
lo se</w>
ev en
Hi gh</w>
pres er
3 00</w>
m al
Amster dam</w>
fi gu
Ko so
is ms</w>
peace ful</w>
state ments</w>
simp li
pic ture</w>
kit chen</w>
con crete</w>
lo s
On ce</w>
produc ers</w>
3 5</w>
bre ak</w>
ho sp
emb ly</w>
sto red</w>
dec lar
Accor ding</w>
fe el
experi enced</w>
ell ing</w>
recogni tion</w>
propos e</w>
i ther</w>
be ds</w>
King dom</w>
l eng
li ons</w>
charac ter</w>
u re
te sts</w>
inst ance</w>
Justi ce</w>
H is</w>
la w
W ar</w>
2 6</w>
fu n</w>
De bian</w>
call ing</w>
F l
a head</w>
vo ice</w>
dis play</w>
char ged</w>
sti c</w>
genu ine</w>
2 8</w>
p al
Europe ans</w>
end or
associ ated</w>
help ful</w>
Chris tian</w>
en su
ag encies</w>
vo tes</w>
f low
fir e</w>
pl us</w>
19 6
guarante es</w>
intro duce</w>
Serv ices</w>
adv anced</w>
fin ance</w>
evi dence</w>
fa ult</w>
en na</w>
Mo st</w>
ri d</w>
appro xim
d ated</w>
Y or
un acceptable</w>
de tail</w>
govern mental</w>
dang erous</w>
immedi ate</w>
r ying</w>
continu ed</w>
c ore</w>
ver ing</w>
elec ted</w>
im possible</w>
neg ative</w>
we ight</w>
insur ance</w>
Or gan
care fully</w>
consum ption</w>
ate st</w>
datab ase</w>
sp ent</w>
W TO</w>
him self</w>
en ting</w>
op s</w>
s le
K ore
un ion</w>
g est</w>
stoc k</w>
impro vement</w>
i e</w>
dom ain</w>
it or</w>
ho t</w>
is on</w>
al ise</w>
tra ding</w>
struc tion</w>
in form</w>
as su
un fortunately</w>
s we
respon sib
p us
di an</w>
dis trict</w>
oun d
model s</w>
l at
v ate</w>
k il
cal cul
territ ory</w>
c ards</w>
o logy</w>
p on
Sw iss</w>
pass ed</w>
beha vi
econom ies</w>
form at</w>
exp end
tr uly</w>
see k</w>
refu ge
g al</w>
G ree
sha red</w>
J e
Democ rats</w>
op h
asy lum</w>
rec or
w ishes</w>
announ ced</w>
do c
s a</w>
ris h</w>
ke eping</w>
Air port</w>
memb ership</w>
chan ging</w>
trans lation</w>
establish ing</w>
av es</w>
lead er</w>
f are</w>
C am
col labor
figu res</w>
Af gh
Lin ux</w>
ic o</w>
stu dies</w>
L an
religi ous</w>
cour ses</w>
gr ounds</w>
E uro</w>
ar ticle</w>
desi re</w>
In stitu
descri bed</w>
comb ination</w>
ob tain</w>
el ement</w>
is ine</w>
avail ability</w>
contin ues</w>
Afr ican</w>
prin t</w>
N ever
val id</w>
tri p</w>
particip ate</w>
strong ly</w>
un to</w>
esti val</w>
Turk ish</w>
clo ser</w>
respec tive</w>
pl om
king .com</w>
I rish</w>
D u
weap ons</w>
G ra
As soci
tas ks</w>
B en
sensi tive</w>
be ar</w>
allow ing</w>
Ukra ine</w>
fe ar</w>
con tex
Res earch</w>
campa ign</w>
wee k
W P$</w>
br and</w>
Gre en</w>
m ass
ti ally</w>
Koso vo</w>
possib ilities</w>
urg ent</w>
nam es</w>
sta tis
ar ily</w>
gre atest</w>
no on</w>
Reg ulation</w>
D P</w>
isc al</w>
P s</w>
perspec tive</w>
un less</w>
attrac tive</w>
E r
mid dle</w>
phot ograph
I P</w>
exhibi tion</w>
p as
b ing</w>
adv ance</w>
3 1</w>
c ement</w>
cor respon
enor mous</w>
F ra
pro mo
C l
b lack</w>
sp ending</w>
fir m</w>
vol un
conclu sions</w>
i ve</w>
D V
op pos
199 8</w>
nor th</w>
convinc ed</w>
s ort</w>
D ue</w>
reserv ation</w>
Mic ro
z e
R a
enti tled</w>
exerc ise</w>
pl ying</w>
spac ious</w>
Li ber
co l</w>
expl a
u d</w>
du le</w>
al ty</w>
tri c</w>
2 9</w>
reli able</w>
dis pu
s ex
regis tered</w>
cu isine</w>
Bo ard</w>
parag raph</w>
S E</w>
th or
rele ased</w>
Never theless</w>
ori al</w>
ar k</w>
res ort</w>
F ac
lear ning</w>
ex port</w>
car s</w>
Palestini an</w>
pack ages</w>
architec ture</w>
jo y</w>
il st</w>
install ed</w>
loc k</w>
anci ent</w>
poli tici
righ tly</w>
comple ted</w>
man age</w>
ben e
enab les</w>
candi date</w>
fi gh
defini tion</w>
com ment</w>
comb ined</w>
institu tion</w>
p un
it ness</w>
transpa rent</w>
perman ent</w>
tele vision</w>
contr ary</w>
Yor k</w>
st ood</w>
v ul
C lick</w>
k er
commit ments</w>
Pri me</w>
M i
e ding</w>
P a
p .
hon ourable</w>
tion ary</w>
cour t</w>
claim s</w>
al le
de ep</w>
Fore ign</w>
I L
con tain</w>
individu als</w>
re mind</w>
sig n
organ ised</w>
W al
dev ices</w>
sch o
fail ed</w>
pp er</w>
pre p
Constitu tion</w>
Sp eci
oc cur
f iscal</w>
G al
la id</w>
z es</w>
l ap
to col</w>
Ne ther
butt on</w>
Gu est</w>
tot ally</w>
initi al</w>
contro ls</w>
Tra de</w>
K ar
vers al</w>
H a
po larity</w>
e ds</w>
ke pt</w>
F u
s ted</w>
E very</w>
me ters</w>
mar ked</w>
M un
out come</w>
h a</w>
hab it
exis tence</w>
dis pos
ili ation</w>
f low</w>
pic tures</w>
C al
s ale</w>
gran ted</w>
Re gi
sk ills</w>
dise ase</w>
P ra
fac tors</w>
s li
ambi tious</w>
ac king</w>
alis tic</w>
olu tions</w>
advertis ing</w>
As s
fi g
achiev ing</w>
He alth</w>
ti se</w>
mo ving</w>
pay ments</w>
m m</w>
plat form</w>
E l
comp ared</w>
sci ence</w>
w in</w>
con sen
y ers</w>
be aches</w>
Bul g
e quality</w>
un able</w>
En er
show er</w>
see ing</w>
whe re
tol er
oblig ations</w>
A no
colleag ue</w>
Nether lands</w>
E astern</w>
exten ded</w>
su n</w>
S uch</w>
Portu gal</w>
col or</w>
ob viously</w>
coff ee</w>
Boo king.com</w>
eleg ant</w>
pi ece</w>
n ations</w>
loo d</w>
ne ither</w>
H el
sur face</w>
f la
rela x</w>
di plom
B rit
y esterday</w>
att ack</w>
ici al</w>
u tes</w>
ph il
pro motion</w>
expend iture</w>
F ol
Ano ther</w>
rec eption</w>
ach ed</w>
ne ar
d ent</w>
n ar
h es</w>
stor age</w>
expres sion</w>
m ass</w>
sur ve
Y et</w>
ren ce</w>
demon str
cor porate</w>
ag ency</w>
continu ing</w>
wr ite</w>
s am
Lu x
ac compan
3 2</w>
S im
lim its</w>
j a</w>
arri val</w>
m .</w>
ma tically</w>
Gree k</w>
ten ance</w>
some one</w>
fo ot
us ual</w>
i .
foo t</w>
occu p
er t</w>
coun ter</w>
mig rants</w>
surroun ding</w>
fe der
m ly</w>
dedic ated</w>
ob serv
u t</w>
C H
big gest</w>
W el
cla im</w>
S un
inter vention</w>
il d</w>
independ ence</w>
b it
appoin ted</w>
poin ted</w>
T our
W he
le ment</w>
uc k</w>
ell ed</w>
Bus iness</w>
ci vil
as king</w>
&apos; ll</w>
re ci
Cro ati
mem ory</w>
pre vention</w>
tri ed</w>
- -</w>
M useum</w>
recommen dations</w>
adv ice</w>
li br
in i</w>
ri ver</w>
sequ ently</w>
recommen d</w>
it age</w>
employ ed</w>
acces sible</w>
cho sen</w>
Pro duc
co ast</w>
neigh bour
ar ms</w>
J av
situ ations</w>
lan tic</w>
coun ter
F oun
Th us</w>
S T
vehic le</w>
so vere
tar gets</w>
E M
main tenance</w>
cor ru
me rely</w>
v an</w>
ca st
rail way</w>
inst all</w>
contain ed</w>
br inging</w>
success fully</w>
1 st</w>
pl ays</w>
back ground</w>
Ag ency</w>
strength ening</w>
W ar
S of
dev ice</w>
f air
bin ding</w>
beau ty</w>
ó n</w>
perfec tly</w>
d ens</w>
boo king</w>
En ter
n ity</w>
d or
go als</w>
monit or</w>
ch er</w>
cap able</w>
mechan ism</w>
a sts</w>
M y
ap ers</w>
pu tting</w>
st ory</w>
con stantly</w>
B as
near by</w>
T y
tab les</w>
si mul
C hi
par am
et ers</w>
responsib ilities</w>
sig nal</w>
ob vious</w>
af for
Re staur
M ac
form ing</w>
b ul
inter face</w>
holi days</w>
Pro gram
phys ical</w>
Gre at</w>
ti le</w>
advant ages</w>
dynam ic</w>
se ven</w>
- 91</w>
el e
tr o</w>
Con tro
re ve
fac tor</w>
Sum mit</w>
conclu de</w>
substan tial</w>
ati n</w>
ch urch</w>
nat ur
quali fied</w>
deli ver</w>
F er
Manag ement</w>
Vi enna</w>
pen sion</w>
st ant</w>
ell a</w>
plan ned</w>
commun ities</w>
see king</w>
dis cover</w>
te sting</w>
emer g
tec tion</w>
f ill</w>
k i</w>
C le
C an</w>
consist ent</w>
x es</w>
u te</w>
ra di
P at
squ are</w>
dra f
y e</w>
s ens
top ic</w>
win dow</w>
ro o
r ul
fas hi
fi f
M O
go ver
sup ple
b ab
comp liance</w>
sw it
approxim ately</w>
consen sus</w>
boo ks</w>
govern ance</w>
b es</w>
air craft</w>
sk i
A re</w>
eng ine</w>
conten ts</w>
Th ose</w>
exten d</w>
categ ory</w>
att acks</w>
up date</w>
g la
fic ations</w>
St .</w>
f light</w>
dist inc
cap it
T ri
ad ju
relax ing</w>
e ded</w>
gui de</w>
arti sts</w>
199 7</w>
sur vi
elim in
ho st</w>
guarante ed</w>
S A
Austri an</w>
fer red</w>
or g
s n
N et
am es</w>
ge t
Associ ation</w>
ti tle</w>
lo s</w>
ca uses</w>
ong s</w>
spec ies</w>
discus sing</w>
addres sed</w>
ph ase</w>
condi tioning</w>
L atin</w>
fu el</w>
ur ban</w>
ou l
dispos al</w>
ni a</w>
dimen sion</w>
Comm un
rap id</w>
conc ent
ec k</w>
ma tely</w>
hol ders</w>
ob ject</w>
technolo gical</w>
In du
C enter</w>
f illed</w>
Stra te
st ations</w>
as sum
R ules</w>
the reby</w>
determin ed</w>
tain ment</w>
attrac tions</w>
expl ain</w>
S tre
sti mul
b a</w>
Syste m</w>
vul ner
out standing</w>
t m
tre ated</w>
lead s</w>
moun tains</w>
reco very</w>
AD D</w>
Rom ania</w>
wa iting</w>
Environ ment</w>
mul ti</w>
on ia</w>
mar ily</w>
on y
k y</w>
si ght</w>
Swe den</w>
sp ir
gra de</w>
ex plan
H ol
d den</w>
L eg
exam ples</w>
resul ting</w>
s per
posi t</w>
identi ty</w>
in spec
shor t
evalu ation</w>
al ia</w>
dec ades</w>
Tech nolo
fac es</w>
Cu st
lux ury</w>
ge ly</w>
regis tration</w>
rou te</w>
w all</w>
man n</w>
br ings</w>
tal ks</w>
s ter</w>
it u
w est</w>
del ay</w>
c ing</w>
war ded</w>
un anim
incor por
sp read</w>
on to</w>
i ds</w>
associ ation</w>
representa tive</w>
gl ass</w>
ur ge</w>
particip ants</w>
in struc
ag ue</w>
M P
ex tra
C ur
Feder al</w>
compe tence</w>
gu ard</w>
bu rea
re nov
pati ents</w>
t ment</w>
manufac turing</w>
Fran k
conduc t</w>
cons ists</w>
it ting</w>
Isra el
ici ous</w>
deal t</w>
re t
mean ing</w>
small er</w>
ven ue</w>
industri es</w>
mechan isms</w>
ir man</w>
y al</w>
pri mary</w>
pl u
G oo
li ability</w>
Qu es
pre viously</w>
a ks</w>
tou ch</w>
6 .
wel l
B oth</w>
2 3
an ge</w>
Min utes</w>
surroun ded</w>
multi ple</w>
In formation</w>
mot or
s co
pri marily</w>
ne arly</w>
ru p
sub scri
w ind</w>
invest ments</w>
appro val</w>
mu tual</w>
spac es</w>
landscap e</w>
pleas ure</w>
S .</w>
consul tation</w>
dri ving</w>
all ing</w>
a i</w>
e ar</w>
ex ce
C lub</w>
C ul
le ts</w>
es sions</w>
R ed</w>
loo ks</w>
neigh b
la ke</w>
re move</w>
fo rest</w>
man i
aff ect</w>
ques ted</w>
s ent
sa tell
phil os
b ath</w>
An y</w>
Bra z
L E
b ars</w>
repres ented</w>
clu b</w>
re quested</w>
noti ce</w>
d u</w>
satell ite</w>
gen e
am ong
acc ess
tur ning</w>
T u
U R
valu able</w>
speak ers</w>
tu red</w>
sanc tions</w>
b y
among st</w>
tion ality</w>
c ab
Restaur ant</w>
qu ant</w>
O ther</w>
D ut
ul ts</w>
smo king</w>
ei ght</w>
en tered</w>
ra il</w>
g one</w>
exp ensive</w>
y ment</w>
ver sions</w>
kin ds</w>
lit er
M S</w>
high light</w>
recogn ise</w>
la tions</w>
an ese</w>
reg ret</w>
l o</w>
dru gs</w>
M at
v on</w>
com plic
at titude</w>
rep ly</w>
compati ble</w>
buff et</w>
M A
Th anks</w>
ste el</w>
V o
lead ership</w>
sm an</w>
m ir
mic ro
so le
P H
D esp
v ent
pris on
prep are</w>
com pla
ol der</w>
O R</w>
furn ished</w>
anc y</w>
Ener gy</w>
phot os</w>
emphas ise</w>
accoun ts</w>
oblig ation</w>
scho ols</w>
S ol
w illing</w>
impro vements</w>
prof it</w>
control led</w>
s lo
nam ed</w>
e .</w>
manufactu rers</w>
know s</w>
Desp ite</w>
Afgh an
op les</w>
R ob
Sta r</w>
te dly</w>
compens ation</w>
mo vi
n on
am en
visi ble</w>
O N
0 1</w>
p ra
con temporary</w>
rejec ted</w>
te ful</w>
deli vered</w>
L ab
f it</w>
in vi
fam ili
S ar
w oo
ni c</w>
fel t</w>
form ul
Loc ated</w>
sou thern</w>
ad ly</w>
Dut ch</w>
B ar</w>
appe al</w>
F R</w>
E gy
hel ping</w>
v it
F o
Micro soft</w>
tru th</w>
signific antly</w>
resol ve</w>
sol ve</w>
g all
fac ed</w>
W il
Afghan istan</w>
deleg ation</w>
ic ity</w>
f ab
refuge es</w>
e ties</w>
dis aster</w>
Sof tware</w>
D en
B ro
peri o
inten tion</w>
f ant
comp ly</w>
ha ve
gh ted</w>
fra ud</w>
cop y</w>
intel lig
Cham ber</w>
reg ister</w>
tax es</w>
oppos ite</w>
R ome</w>
streng th</w>
ac ting</w>
Sa fe
auth or</w>
bur den</w>
lin ed</w>
N G
Gr and</w>
P ak
S il
en a</w>
we alth</w>
g le</w>
aff airs</w>
pres entation</w>
ab led</w>
feel ing</w>
sym bo
19 5
sub stances</w>
R ot
jour n
a .
sk in</w>
in ary</w>
r ich
e m</w>
sha pe</w>
S ci
figh ting</w>
g in</w>
emphas is</w>
em o
lis ten
burea uc
politici ans</w>
cons ci
presid ent</w>
suff ering</w>
7 5</w>
ti n</w>
aga z
renew able</w>
wa it</w>
in ations</w>
m id</w>
laun ched</w>
E ver
or al</w>
e -01</w>
exis ts</w>
requ ests</w>
g .</w>
draw ing</w>
C ub
S up
F ind</w>
sel l</w>
mo bility</w>
ra dio</w>
Be fore</w>
ow er</w>
G lob
fir stly</w>
el d</w>
199 6</w>
dic tion</w>
Program me</w>
DV D</w>
fig ure</w>
g ir
M c
dang er</w>
La ke</w>
treat y</w>
recogn ised</w>
exten sion</w>
fin ding</w>
un ch</w>
es sive</w>
er o
char ges</w>
Mar ket</w>
wh ate
s s
oper ators</w>
heav y</w>
intel lec
pe oples</w>
leng th</w>
fru it</w>
comb ating</w>
low ing</w>
whate ver</w>
invol ving</w>
T or
A gr
re place</w>
2 5
ob st
expec tations</w>
applic able</w>
B or
ic king</w>
dis ci
G DP</w>
de fault</w>
A F
del e
Comp any</w>
c r
feren ces</w>
exper tise</w>
co vers</w>
F re
S E
y right</w>
inter ven
run s</w>
g a</w>
su ite</w>
ref lect</w>
P an
ir dly</w>
J u
person ally</w>
produc ing</w>
arrang ements</w>
ph en
M ex
Tw o</w>
le d
T I
Par t
so ld</w>
qu ick</w>
a w
direc tives</w>
b arri
Brit ain</w>
natur ally</w>
ey e</w>
Pro ce
construc tive</w>
ur ies</w>
K y
pl ause</w>
g er
P aper</w>
to m</w>
n els</w>
g olf</w>
S T</w>
bal con
c ast</w>
mo ved</w>
M ag
port ation</w>
experi ences</w>
er ror</w>
z ing</w>
op posed</w>
th ly</w>
con stant</w>
invol vement</w>
gi a</w>
Bel ar
fic ial</w>
happ ens</w>
depend ent</w>
dise ases</w>
fa il</w>
hol ding</w>
web sites</w>
ob li
un its</w>
tur ns</w>
in spi
excep t</w>
Min isters</w>
th an
P E</w>
cent res</w>
loc ations</w>
oun ge</w>
H u
pa ir</w>
confir med</w>
pro of</w>
offici als</w>
ini ons</w>
m ur
critic ism</w>
ro ll</w>
protec ting</w>
Tran s
heal thy</w>
dest ination</w>
au dio</w>
pre mi
ren ess</w>
tex ts</w>
p rou
wh ilst</w>
ser ves</w>
appreci ate</w>
mil lions</w>
lat ter</w>
rapporte urs</w>
in al</w>
.. ..</w>
g ment</w>
alo g</w>
man date</w>
ch am
D F</w>
brow ser</w>
cons is
rela tively</w>
ti me
Kore a</w>
C er
ar ticles</w>
obst ac
for ma
Strate gy</w>
Safe ty</w>
ph r
engine ering</w>
o red</w>
p al</w>
tr e</w>
liber alisation</w>
dic t
pro v
7 .
le is
S an
pi on
dis covered</w>
H ome</w>
conveni ent</w>
hel ps</w>
NA TO</w>
dis charge</w>
stru gg
aliz e</w>
reach ing</w>
ens es</w>
sp a</w>
under min
Pri vate</w>
equ ally</w>
l as
C E
repe at</w>
ol d
priv acy</w>
Char ter</w>
recommen ded</w>
con serv
k o</w>
happ ening</w>
hol ds</w>
is ol
Ne w
fur t</w>
ut sch
f em
Swe dish</w>
deb ates</w>
h tt
fi es</w>
Is lam
hoste ls</w>
contin ent</w>
hand ling</w>
priv ile
g ri
om an</w>
En joy</w>
n om
exclu sively</w>
and a</w>
dre ds</w>
wat ers</w>
determin e</w>
e. g.</w>
li ers</w>
cy cle</w>
Ru le</w>
fri end</w>
passeng ers</w>
appe ar
9 8</w>
Contro l</w>
te en</w>
contribu tions</w>
r ing
sus p
Lux emb
f ts</w>
n is</w>
def end</w>
S P
In stead</w>
Ever y
lis ts</w>
um b
amoun ts</w>
tre es</w>
dec la
multi l
lar gely</w>
T re
Ar t</w>
I D</w>
re less</w>
ser vers</w>
appe ared</w>
pro ve</w>
li o</w>
Bre akfast</w>
awa reness</w>
objec ts</w>
al bu
ea p</w>
U .
mean ing
strate gies</w>
restric tions</w>
o d
op inions</w>
st ree
h am
collec tive</w>
mo bil
Wh ere</w>
ta ste</w>
res olutions</w>
bo at</w>
pres enta
ob tained</w>
enti ty</w>
p ine</w>
N ote</w>
help ed</w>
adv oc
- -
leg ally</w>
de ad
an i
resol ved</w>
Ho ste
volu me</w>
stree ts</w>
sp ring</w>
increas es</w>
defin e</w>
cha in</w>
TH E</w>
S ing
s tic
m useum</w>
comm and</w>
tan e
contrac ts</w>
e u
der ing</w>
V illa</w>
temper ature</w>
pro sper
un c
dis hes</w>
Fin ancial</w>
St ar
me at</w>
certain ty</w>
require ment</w>
ti tion</w>
j e</w>
ly mp
ass ure</w>
remo ved</w>
ch eap</w>
recommen dation</w>
disci pl
an g</w>
Goo gle</w>
autom atic</w>
Ta ke</w>
issu ed</w>
st res
ME Ps</w>
&apos; re</w>
i ved</w>
du m</w>
Croati a</w>
ther ap
a h
L ord</w>
D el
part ments</w>
communic ations</w>
regul atory</w>
La dies</w>
i. e.</w>
sp on
in k</w>
Bal k
A ud
cre ative</w>
ass ist</w>
parliam ents</w>
bed room</w>
Mun ich</w>
Ch eck</w>
itte es</w>
in sul
ris ing</w>
Bulg aria</w>
ci a</w>
dro p</w>
ed oms</w>
f al
prepar ation</w>
Institu te</w>
3 0
ver i
Al liance</w>
I F
inten d</w>
a side</w>
esti ma
invol ve</w>
P u
re d
I G
off ices</w>
excep tional</w>
conflic ts</w>
pi ec
9 .
S el
S qu
S ou
organiz ations</w>
comm is
Mon etary</w>
prec ise</w>
dru g</w>
4 00</w>
le aving</w>
es day</w>
out put</w>
gen der</w>
ro l
per form</w>
F lo
paren ts</w>
char ming</w>
fle et</w>
Cy pr
terror ist</w>
reser ve</w>
b lue</w>
mas sive</w>
l ers</w>
c oura
S ME
Cypr us</w>
main tained</w>
4 8</w>
facilit ate</w>
fa ther</w>
oper ational</w>
e ast</w>
ey es</w>
ir a</w>
fac ts</w>
laun ch</w>
min ority</w>
O per
L ast</w>
occa sion</w>
pro ved</w>
ro b
eth nic</w>
apos; ll</w>
dep ends</w>
philos oph
identi fy</w>
Enter prise</w>
c au
b lood</w>
remain ing</w>
cri pt</w>
lar s</w>
E ar
oc k</w>
20 20</w>
bloc k</w>
thu si
Foun dation</w>
no ise</w>
SME s</w>
Pro f
r ors</w>
S to
Agr icul
furn iture</w>
Luxemb our
B est</w>
ab s
cre ates</w>
wel fare</w>
h it</w>
R el
cu tting</w>
Au str
cust oms</w>
wor se</w>
jour ney</w>
wi d
character istics</w>
U se</w>
traff icking</w>
under stood</w>
c lic
re alistic</w>
al ed</w>
S am
gla d</w>
is s
ab road</w>
us ted</w>
l ar</w>
y es</w>
effec tiveness</w>
ab and
resid ence</w>
We b
ra y</w>
P L</w>
tr y
confir m</w>
L e</w>
sig ns</w>
Rom a</w>
impres sive</w>
1 ,
a h</w>
f our
Proce dure</w>
cri ption</w>
t ours</w>
jud icial</w>
divi ded</w>
de par
pass word</w>
Jap anese</w>
St ation</w>
v ast</w>
cou ple</w>
tre at</w>
sub mit</w>
enter tainment</w>
emerg ency</w>
en thusi
produc tive</w>
N i
kil om
gra teful</w>
bri dge</w>
C at
reser ves</w>
fl at</w>
ff s</w>
O ver</w>
impres sion</w>
le v
Pol ish</w>
connec tions</w>
as ing</w>
Str uc
S Q
con ce
il ed</w>
ulti mately</w>
fin ished</w>
conc iliation</w>
T ime</w>
S S</w>
B ook</w>
Luxembour g</w>
co ld</w>
phen om
w ing</w>
di c</w>
car bon</w>
vis a</w>
B on
subsi dies</w>
di d
extre me</w>
hun dreds</w>
ar m</w>
absolu te</w>
r ic
acti vely</w>
L am
wat ch</w>
hosp it
conduc ted</w>
organiz ed</w>
ar d
Israel i</w>
in cid
Jo hn</w>
spec tac
M oun
gi ble</w>
some what</w>
electr icity</w>
tr ou
ha gen</w>
func tioning</w>
pollu tion</w>
regul arly</w>
down load
T im
The ir</w>
ex plic
Co sta</w>
exper im
ev a</w>
P en
Un der</w>
re n</w>
9 9</w>
bed rooms</w>
out door</w>
uni versal</w>
de als</w>
foc used</w>
w oman</w>
b om
im posed</w>
F am
Amer ic
li e</w>
d ining</w>
Th rou
I A</w>
g t
leis ure</w>
di ag
pan or
m ation</w>
pat ter
piec es</w>
declar ation</w>
no ted</w>
deman ding</w>
d less</w>
ro ads</w>
ur s
col our</w>
m ac
plo yment</w>
8 .
O lymp
prou d</w>
do ors</w>
corru ption</w>
answ ers</w>
N E
we st
N ice</w>
N O
Mus li
din ner</w>
mess ages</w>
Frank furt</w>
a x</w>
ve ge
t ance</w>
follow s</w>
es n</w>
statis tics</w>
deli ghted</w>
f ü
Ara b</w>
F il
sex ual</w>
co vering</w>
M L</w>
g t</w>
promis es</w>
ir ing</w>
ra w</w>
w ater
Slo v
we ather</w>
Ph ot
Portu gu
C E</w>
en e</w>
B r
eng en</w>
comm ittees</w>
chem ical</w>
S O
g row</w>
V ery</w>
re ment</w>
P T</w>
sem in
Wel come</w>
E N</w>
im plic
1 50</w>
hard ware</w>
De utsch
invest ors</w>
s ligh
dis played</w>
E L
so le</w>
se at</w>
m el
199 5</w>
w alls</w>
re ject</w>
fe e</w>
f aster</w>
new ly</w>
Amend ments</w>
z y</w>
ll er</w>
intellec tual</w>
stric t</w>
vis ual</w>
ast ers</w>
e ter</w>
c able</w>
demonstr ate</w>
Ho tels</w>
do esn</w>
ow ners</w>
lic ense</w>
al co
P act</w>
in habit
Can ada</w>
E l</w>
d able</w>
spo t</w>
demonstra ted</w>
Wh ite</w>
main taining</w>
quanti ty</w>
spo ken</w>
a x
jo ined</w>
justi fied</w>
Sch engen</w>
M ari
invol ves</w>
famili ar</w>
men ted</w>
mar i
indic ated</w>
Portugu ese</w>
satis fied</w>
f ran
gt ;</w>
& gt;</w>
p sy
re turned</w>
b ly</w>
c on</w>
U p
her itage</w>
ö r
D ay</w>
min orities</w>
e k</w>
ton om
id ly</w>
defini tely</w>
Per s
me ant</w>
sk y</w>
accompan ied</w>
pro gres
cont acts</w>
R en
citiz en</w>
bil ateral</w>
re tary</w>
frequ ently</w>
S cot
Braz il</w>
st ers</w>
decla red</w>
Bar ro
speak er</w>
ed ge</w>
ear th</w>
dep ending</w>
An g
w it
transi tion</w>
prin ting</w>
be t</w>
cri mes</w>
acc o</w>
htt p</w>
9 5</w>
conclu ded</w>
proper ties</w>
ow ner</w>
Fun ds</w>
re ported</w>
the at
is i
mar k
Ques tion</w>
Ap plause</w>
tr act</w>
Pak istan</w>
r ant</w>
D A
te sted</w>
per formed</w>
determin ation</w>
new sp
bri ef</w>
D ata</w>
compe tent</w>
wi de
in de
fe ed</w>
e astern</w>
s ac
a i
bot tom</w>
tor al</w>
co ast
fant astic</w>
vi et</w>
adop ting</w>
im migrants</w>
cast le</w>
me tal</w>
3 3</w>
tack le</w>
constitu tional</w>
O m
sett ings</w>
care ful</w>
D om
dri ver</w>
ad o</w>
ant a</w>
tic ket</w>
fi l</w>
er o</w>
m agaz
a ward</w>
phr ase</w>
resp ected</w>
pre fer</w>
Stre et</w>
A ir</w>
l ying</w>
subsidi arity</w>
cl ing</w>
surroun dings</w>
pro spec
he ating</w>
9 7</w>
T r
on going</w>
per cent</w>
clas sic</w>
gr ant</w>
ge ograph
credi bility</w>
open hagen</w>
ag s</w>
Per haps</w>
up dated</w>
ma y
legi timate</w>
prof ile</w>
show ing</w>
to b
inter nation
V ice</w>
collabor ation</w>
passeng er</w>
n es</w>
after noon</w>
So viet</w>
C openhagen</w>
trans portation</w>
ar a</w>
west ern</w>
ou red</w>
drin k</w>
vis ed</w>
care er</w>
nor thern</w>
fir ms</w>
star ts</w>
b ound</w>
A le
Whe ther</w>
y pe</w>
pres ents</w>
inv ite</w>
G et</w>
re pu
libr ary</w>
ri a</w>
dri vers</w>
a tion
Gi ven</w>
Bal tic</w>
wide ly</w>
techni ques</w>
2 4
de tec
Belar us</w>
over come</w>
glob alisation</w>
de struction</w>
contr ast</w>
a part</w>
SQ L</w>
possib ly</w>
o v
Sa int</w>
tax ation</w>
en for
prec ed
Pro tection</w>
lis ten</w>
is lands</w>
visi ted</w>
P ic
B et
Cust om
6 4</w>
provi der</w>
Struc tural</w>
sa una</w>
ou se
mo stly</w>
Y es</w>
at ly</w>
constitu tion</w>
dist ingu
high ligh
res istance</w>
assu me</w>
as sets</w>
occa sions</w>
dep th</w>
ul l</w>
regar ded</w>
str onger</w>
occu r</w>
S m
mo ther</w>
am ic</w>
inhabit ants</w>
Squ are</w>
exper t</w>
person nel</w>
e th</w>
c ess</w>
emer ging</w>
config uration</w>
l ong
sett lement</w>
tar ge
I R
schem e</w>
W ell</w>
mor al</w>
la sting</w>
bour g</w>
Y u
u red</w>
desi red</w>
l ity</w>
he at</w>
Op en</w>
D e</w>
chan nels</w>
Belgi um</w>
ter y</w>
M ay
ti ll</w>
renov ated</w>
ent h</w>
Bus h</w>
satisfac tion</w>
plen ary</w>
w ines</w>
acknow led
Hung ary</w>
val ley</w>
Bo s
min i</w>
fashi on</w>
arri ve</w>
F i</w>
f lights</w>
con centr
docu mentation</w>
cha p
foun dation</w>
loo ked</w>
rap idly</w>
eth eless</w>
h all</w>
t ably</w>
H or
ce l</w>
fac ility</w>
encoura ging</w>
ori ented</w>
re plac
inclu sion</w>
rem ote</w>
par tly</w>
identi fied</w>
far m</w>
9 6</w>
m aster</w>
for um</w>
trans actions</w>
T un
correc tly</w>
f ers</w>
educ ational</w>
ac ted</w>
go ld</w>
ha ir</w>
balcon y</w>
N on</w>
view ed</w>
h um
th i
ing ton</w>
mag nific
e en</w>
inf lation</w>
cop yright</w>
Th irdly</w>
quar ter</w>
pre dic
decor ated</w>
Con sum
on om
contain ing</w>
propos es</w>
defic it</w>
n ect</w>
have -
vis ory</w>
st op
exc iting</w>
cele bra
sha res</w>
b log</w>
ter ing</w>
relax ation</w>
mon o
Rom an</w>
sug ar</w>
li t</w>
pro mp
in ci
20 11</w>
expan sion</w>
th ir
decis ive</w>
3 4</w>
appear ance</w>
al ing</w>
propos ing</w>
dis tor
se where</w>
z en</w>
D r.</w>
ho p</w>
Str as
albu m</w>
behavi our</w>
liber al</w>
argu ment</w>
emp ha
Vi e
Ac tion</w>
st y</w>
com man
soli d</w>
prepar ing</w>
ro le
exam ine</w>
ru b
interpre tation</w>
Fri day</w>
inter ior</w>
mat ch</w>
correspon ding</w>
de partment</w>
Pal ace</w>
N os</w>
Speci al</w>
re placed</w>
nor m
ne u
c amp
O ld</w>
ti mis
func tional</w>
consid ering</w>
manufactu rer</w>
adju st
har m
sen ding</w>
ch ron
im pose</w>
ra in</w>
cu ts</w>
B an
tour ists</w>
coun try
chan nel</w>
S en
pu ts</w>
recor ded</w>
ir y</w>
ro man
supp liers</w>
arti st</w>
vulner able</w>
them e</w>
a warded</w>
o g
AF X</w>
bri ef
in d
cor ner</w>
vac ation</w>
Ri ver</w>
y outh</w>
s aving</w>
ar my</w>
hous ing</w>
distribu ted</w>
gener ated</w>
su ites</w>
ess or</w>
fra me</w>
re struc
am az
Pra gue</w>
Hung arian</w>
tic kets</w>
mo tiv
3 6</w>
bre ak
mari time</w>
gh ly</w>
ab les</w>
sub stance</w>
cour ts</w>
Fol lowing</w>
ne ver
compon ent</w>
pa rent</w>
expl ore</w>
mil k</w>
provi ders</w>
on ed</w>
Mex ico</w>
volun tary</w>
di vision</w>
sh aring</w>
du ties</w>
re min
su m</w>
f alls</w>
tob acco</w>
U. S.</w>
ti que</w>
6 5</w>
Th urs
vis iting</w>
el er
or a</w>
na vig
A CP</w>
ni ghts</w>
never theless</w>
plan et</w>
alco ho
for th
With out</w>
abs ence</w>
E lec
D ef
cre d
V AT</w>
tow ns</w>
ow ned</w>
l ay</w>
Sp a</w>
y l
Secon d</w>
und red</w>
ro ck</w>
sec ret</w>
ap plying</w>
W ill</w>
el sewhere</w>
mon u
profession als</w>
on ing</w>
I V</w>
extra ordinary</w>
suff er</w>
d ating</w>
ent re
cir cul
W omen</w>
p. m.</w>
I II</w>
repres entation</w>
Fra mework</w>
se t
ab use</w>
Ass embly</w>
sole ly</w>
entr ance</w>
certi fic
With in</w>
E st
excep tion</w>
j ur
Nor thern</w>
bat tle</w>
exc essive</w>
5 0
pat ent</w>
car rying</w>
c ry
f itness</w>
val ent</w>
rou tes</w>
proce ed</w>
form al</w>
c ash</w>
V ol
enti ally</w>
addres ses</w>
re now
enh ance</w>
won der</w>
H T
gh ter</w>
O s</w>
ex ports</w>
ban king</w>
au l</w>
au tonom
CO M</w>
Ch urch</w>
Des cription</w>
stre am</w>
S itu
E L</w>
li ft</w>
quar ters</w>
pre ne
ed ings</w>
Re port</w>
Mad rid</w>
ex it</w>
ri c</w>
inten sive</w>
am ing</w>
appoin tment</w>
stra ight</w>
Agricul ture</w>
h undred</w>
complic ated</w>
K ur
religi on</w>
pursu e</w>
ensu res</w>
thous and</w>
Se e</w>
Leg al</w>
ol a</w>
L O
AD S</w>
inv est</w>
se l</w>
cent uries</w>
ob ile</w>
sh ar
S pe
uni versity</w>
fre edoms</w>
new s
co sy</w>
De sign</w>
an ni
direc ted</w>
s low</w>
col on
public ation</w>
concep ts</w>
3 7</w>
pro ven</w>
win dows</w>
Ob ama</w>
gar dens</w>
lux ur
h ing</w>
speci ally</w>
sub jects</w>
t age</w>
w as
la ted</w>
4 9</w>
ro te</w>
pl enty</w>
poli tically</w>
l ounge</w>
fra g
mar ri
Thurs day</w>
elec tric</w>
pro p
d ance</w>
val id
supp lies</w>
pack aging</w>
mil es</w>
g ence</w>
Des k</w>
sch ed
tri al</w>
sav ings</w>
tra ge
cons ent</w>
sligh tly</w>
far ming</w>
ol den</w>
ad ults</w>
meas ure
S atur
Au th
ma kers</w>
r i</w>
harmon isation</w>
p el
fore sts</w>
in ser
up dates</w>
Co de</w>
fil ms</w>
scen e</w>
avo i
tu m
argu ments</w>
H is
st abil
t ty</w>
negoti ating</w>
prosper ity</w>
Tran sport</w>
ay ed</w>
gre atly</w>
IS O</w>
accur ate</w>
pati ent</w>
CO 2</w>
en de
win ning</w>
satisfac tory</w>
at ures</w>
difficul ty</w>
co operate</w>
ch ers</w>
tren d</w>
sugges tions</w>
speci fied</w>
O r</w>
the ory</w>
tradi tions</w>
versi ties</w>
enab led</w>
D ol
Technolo gy</w>
im ports</w>
h ome
es cap
constitu te</w>
-0 3</w>
pay ing</w>
al located</w>
Z e
less ons</w>
signific ance</w>
Egy pt</w>
tra de
necess arily</w>
C ri
ren tal</w>
H y
c row
gu n</w>
uni ted</w>
spectac ular</w>
di verse</w>
di t</w>
col lap
attemp ts</w>
o x
s si
sugges ted</w>
even tually</w>
b ou
spo ke</w>
ga ined</w>
ow n
E ADS</w>
bi ke</w>
é s</w>
v als</w>
referen dum</w>
apos; re</w>
Slo ven
lo ts</w>
auth en
I B
ro g
f ron
Aud itors</w>
sty lish</w>
off ic
fic i
res ear
enab ling</w>
WH ADJP</w>
supp lier</w>
s .
promis ed</w>
S ha
moder n
shi pping</w>
lo vely</w>
al ties</w>
w ill
compar ison</w>
an e</w>
P age</w>
s and
l as</w>
obli ged</w>
dep end</w>
et te</w>
ful fil</w>
Al ban
s inc
every day</w>
arti stic</w>
succe ed</w>
recei ving</w>
Soci alist</w>
Barro so</w>
top ics</w>
inv o
sel ling</w>
ar ch
dis abled</w>
Stras bourg</w>
magnific ent</w>
hoste l</w>
soci eties</w>
doub tedly</w>
acti v
s op
199 0</w>
g ro
U l
perio ds</w>
fundam ent
si ghts</w>
clas si
Li ke</w>
m in</w>
el a</w>
direc tory</w>
H an
wel com
proce edings</w>
H aving</w>
s ought</w>
lab el</w>
p m</w>
n ic
ony mous</w>
forth coming</w>
At lantic</w>
Americ ans</w>
no tes</w>
n ings</w>
D ub
no tic
philosoph y</w>
lab elling</w>
introduc ing</w>
vir tual</w>
safe guard</w>
St ability</w>
reserv ations</w>
arm ed</w>
Sec retary</w>
invi ted</w>
de ter
pos ing</w>
en em
per cent
super vision</w>
0 8</w>
di tion</w>
week end</w>
fish er
Gu ests</w>
ac he</w>
op timis
en ni
w er</w>
ref ers</w>
199 4</w>
per mitted</w>
hi b
ent e</w>
preven ting</w>
li fe
Con gress</w>
mo dule</w>
dis k</w>
therap y</w>
C ast
s wi
campa ig
peri or</w>
w rote</w>
fin ish</w>
entre prene
pl ate</w>
3 9</w>
re vision</w>
h es
t less</w>
in put</w>
im port</w>
welcom ed</w>
ar i</w>
mot or</w>
sug ge
Be sides</w>
fir mly</w>
ha el</w>
renow ned</w>
h t</w>
ac tors</w>
te ams</w>
B ay</w>
st ages</w>
min isters</w>
B l
Islam ic</w>
IN G</w>
E duc
b un
Fac ilities</w>
ev al</w>
be ings</w>
D A</w>
5 5</w>
p ill
ph ones</w>
an i</w>
ic ation</w>
re alise</w>
le -01</w>
k illed</w>
coo k
res ource</w>
port fo
j unc
Fin land</w>
we ak</w>
ment ally</w>
Me dia</w>
descri ption</w>
barri ers</w>
ear n</w>
un for
tw enty</w>
sup posed</w>
Ser bia</w>
continu ous</w>
4 2</w>
er al</w>
program ming</w>
su rely</w>
ge o
es ter</w>
col ours</w>
four th</w>
Y ear</w>
S anta</w>
suff ered</w>
depar ture</w>
i de</w>
gg age</w>
M ol
sustain ability</w>
feder al</w>
dig nity</w>
3 D</w>
Ven e
she et</w>
E d
la u
de posit</w>
Ti p</w>
le aves</w>
Eng land</w>
3 8</w>
fa ith</w>
ar ise</w>
contribu ted</w>
Su per
ti tions</w>
gener ate</w>
ha m</w>
6 00</w>
0 9</w>
es ted</w>
the re
V ir
Mon day</w>
country side</w>
mi x</w>
ter ri
re marks</w>
obstac les</w>
dis asters</w>
sovere ign
exclu sion</w>
clu bs</w>
enter prise</w>
s low
S ite</w>
stoc ks</w>
explo itation</w>
s i</w>
S ur
endor se</w>
P PE</w>
Commission ers</w>
every body</w>
or g</w>
h ouse
ast ly</w>
ac qui
h r</w>
v ess
inf ring
P O
par ad
al es</w>
par liament</w>
coordin ated</w>
Mor oc
use ums</w>
ack ed</w>
c af
t ree</w>
Sun day</w>
te lec
har dly</w>
8 00</w>
where as</w>
comp li
investig ation</w>
restric ted</w>
adap t</w>
Ch il
vers ary</w>
destro yed</w>
ong side</w>
dre am</w>
S hi
dis cre
wi der</w>
H O
expla ined</w>
Ac t</w>
wel comes</w>
viol ations</w>
G N
m o</w>
mis sing</w>
over view</w>
La w</w>
i o</w>
n one</w>
speci alist</w>
ski ing</w>
d um
acc eler
20 13</w>
vill ages</w>
con nect</w>
pen alty</w>
mi x
hor iz
la y
vess els</w>
hand le</w>
arri ved</w>
in ev
S tor
ha z
hear ing</w>
al y
un doubtedly</w>
confir mation</w>
ph arm
we ar</w>
sever e</w>
mo vements</w>
deli ber
10 .
at tribu
recogni zed</w>
mis sions</w>
EC B</w>
Ex ecu
ste in</w>
sec tions</w>
indic ate</w>
4 4</w>
gall ery</w>
pri me</w>
believ es</w>
hom es</w>
F ood</w>
0 7</w>
sovereign ty</w>
produc tivity</w>
i v
en on</w>
Balk ans</w>
re a</w>
regar dless</w>
drin ks</w>
enh anced</w>
la h</w>
Is land</w>
star s</w>
boo k
F estival</w>
alle l</w>
m its</w>
B lack</w>
Feder ation</w>
A sian</w>
ris es</w>
ten tion</w>
li f
ag g
the dr
reflec ted</w>
cla use</w>
mun ici
cro s
flow s</w>
organ ic</w>
imag ine</w>
diag no
sequ ent</w>
ga p</w>
param eters</w>
cell s</w>
M E</w>
bud sman</w>
u pper</w>
l ad
appro ve</w>
Throu gh</w>
n ine</w>
func tionality</w>
instruc tions</w>
Ear th</w>
j ac
Glob al</w>
Do es</w>
go sla
accep tance</w>
St and
mass age</w>
T A
O F</w>
en ever</w>
PH P</w>
Sal z
Ad di
EC U</w>
ic ations</w>
simul tane
los ses</w>
Yu gosla
S cript</w>
consider ably</w>
canc er</w>
coura ge</w>
ab or
pic tu
ende av
K ing</w>
wor thy</w>
1 00
st un
ri de</w>
S .
Ag enda</w>
s in
clean ing</w>
luxur ious</w>
te a</w>
er rors</w>
mod ules</w>
con soli
ass ur
ran ging</w>
pro tocol</w>
manag er</w>
de m</w>
dem ic</w>
ass ess</w>
n d</w>
ac es</w>
P C
trans mission</w>
exclu ded</w>
C op
a str
li a</w>
remain ed</w>
Sh ould</w>
li ved</w>
legi tim
bir th</w>
F ish
strength ened</w>
sav ed</w>
jur is
z er</w>
emb ar
Ham burg</w>
re action</w>
dec ade</w>
d ry</w>
r are</w>
tri ps</w>
foot ball</w>
under taken</w>
ro ot</w>
S D
fair ly</w>
restruc turing</w>
t ari
get table</w>
Organ isation</w>
enjo yed</w>
accid ent</w>
ten nis</w>
dol lar</w>
charac ters</w>
T own</w>
US B</w>
ü r
f estival</w>
use -01</w>
Ro yal</w>
G ood</w>
enc ing</w>
Wh o</w>
reflec ts</w>
p ure</w>
gener ations</w>
direc tor</w>
show ed</w>
ex em
adap ted</w>
Regi onal</w>
wa ve</w>
fisher men</w>
fu sion</w>
fe es</w>
manag ing</w>
minis ter</w>
ar bit
wor st</w>
T ro
roo ts</w>
S mo
de ad</w>
S ome
Gen eva</w>
D own
uni versities</w>
D avi
internation ally</w>
f t
P lu
collec ted</w>
origin ally</w>
aff ec
ad or</w>
chec ks</w>
concentr ate</w>
re di
B each</w>
st al</w>
sha dow</w>
ra ising</w>
an te</w>
comb ine</w>
Sch ool</w>
ther mal</w>
Z im
ce re
fem ale</w>
n i</w>
pol y
dri ven</w>
gg ing</w>
re mark
tu s</w>
class es</w>
E v
pill ar</w>
the tic</w>
re construction</w>
conven tional</w>
om mun
appropri ations</w>
b lin
Situ ated</w>
Min is
free ly</w>
ate n</w>
Tour ism</w>
unfor gettable</w>
C li
la yer</w>
democ ra
cha ir</w>
ti g
Mic hael</w>
acknow ledge</w>
CA P</w>
dis co
On line</w>
Geor gia</w>
im m
stre t
s ounds</w>
Syste ms</w>
sub sequent</w>
ici ans</w>
tm as</w>
ex cur
AN D</w>
E A
targe ted</w>
in er</w>
un known</w>
re store</w>
ce an</w>
In n</w>
pr o</w>
in ated</w>
ess ed</w>
T R
pre ad</w>
cele br
G az
D S
O ut
del icious</w>
ra ted</w>
is ite</w>
4 1</w>
Ex press</w>
Austr alia</w>
ri d
n esses</w>
comp ul
thedr al</w>
lis tings</w>
W i</w>
f illing</w>
8 5</w>
inf o</w>
In te
qu iry</w>
f lu
ev olution</w>
sen sible</w>
NG Os</w>
pro hibi
l unch</w>
con vic
4 3</w>
fu els</w>
P DF</w>
pres sion</w>
be l</w>
ar ising</w>
prof its</w>
ing redi
el ev
his tic
ic y
trans ferred</w>
supp lied</w>
confi d
process ed</w>
des k</w>
con ve
ass embly</w>
mus ical</w>
Pe ter</w>
P aul</w>
well ness</w>
T S</w>
consul ting</w>
il es</w>
neighbour ing</w>
pos s</w>
im pe
K e
compu ters</w>
s now</w>
threat s</w>
il le</w>
inten ds</w>
Cul ture</w>
k i
sh ut
V ic
pres enting</w>
bud gets</w>
f ans</w>
ach ing</w>
&apos; ve</w>
ten d</w>
propor tion</w>
R am
suffici ently</w>
sched ul
ar dis
tin y</w>
gui ded</w>
jo ining</w>
us age</w>
ke t
g ot
si t</w>
reli ability</w>
sp ect</w>
c les</w>
deep ly</w>
lear ned</w>
l en
brief ly</w>
bel ong</w>
C amp
tren ds</w>
Om budsman</w>
se x</w>
head ing</w>
cul tures</w>
4 7</w>
for th</w>
Con sequently</w>
col um
L ou
in j
an der</w>
vir us</w>
urg ently</w>
e ase</w>
Bud gets</w>
rela tes</w>
par allel</w>
dor f</w>
ec ological</w>
N ic
satis fy</w>
equi valent</w>
Den mark</w>
ra id</w>
S I
symbo l</w>
f an</w>
C ard</w>
ti s</w>
iz ing</w>
movi e</w>
B C</w>
L astly</w>
An n
prospec ts</w>
re v
ker nel</w>
ro c
k top</w>
Consum er</w>
Belgi an</w>
b our</w>
Educ ation</w>
P res
A 5</w>
fas cin
eng aged</w>
beli ef</w>
Ta i
M et
ra ble</w>
m useums</w>
p h</w>
P ress</w>
Ven ice</w>
W at
sop histic
refer ring</w>
l ag
hon our</w>
euro s</w>
Re al</w>
0 5</w>
prin ted</w>
D ra
Satur day</w>
su it</w>
a p</w>
fun ded</w>
compe ten
cohe rent</w>
tax pay
regul ated</w>
dec line</w>
prov ince</w>
Execu tive</w>
o to</w>
strugg le</w>
phenom enon</w>
vide os</w>
L im
uti li
pus h</w>
ur a</w>
travel ling</w>
fac tory</w>
illu stra
boo t</w>
in no
z ation</w>
G ran
ine ly</w>
Fun dam
dam ages</w>
e at</w>
em a</w>
pr ic
oper ates</w>
grow n</w>
wi des
pass ing</w>
di um</w>
S A</w>
territ orial</w>
highligh ted</w>
as ser
ab sor
pic k</w>
hospit ality</w>
d ark</w>
ing er</w>
manufac ture</w>
ad ds</w>
stu dio</w>
s is</w>
A P
an ticip
ow s</w>
In dian</w>
geograph ical</w>
comp act</w>
ab ol
is o
Chris tmas</w>
consequ ence</w>
any where</w>
effici ently</w>
w ri
fü r</w>
s ong</w>
e able</w>
consid ers</w>
me d
diplom atic</w>
rea ties</w>
c lin
adv ent
reser ved</w>
anni versary</w>
ad ding</w>
h ill</w>
enter ing</w>
B M
as se</w>
wel coming</w>
s ory</w>
U ser</w>
ess entially</w>
wi reless</w>
199 2</w>
í a</w>
Pro tocol</w>
incre di
shi ft</w>
po l</w>
gre en
T our</w>
T reaties</w>
mis take</w>
s ongs</w>
is ted</w>
conf ron
aff ir
z o
o tive</w>
high lights</w>
cel l</w>
Am ong</w>
execu tive</w>
produc es</w>
re stored</w>
or dered</w>
Re presenta
desig ns</w>
ous ness</w>
eng age</w>
portfo lio</w>
t -01</w>
occur red</w>
norm ally</w>
mar t</w>
d a
Is lands</w>
C O</w>
candi dates</w>
res que</w>
om as</w>
att ached</w>
N u
Direc tor</w>
r at
Constitu tional</w>
roman tic</w>
z u
ak ia</w>
v a
fav ourable</w>
uni form</w>
swit ch</w>
si zes</w>
ist ant</w>
aff ects</w>
pris on</w>
Val ley</w>
re iter
re ti
prison ers</w>
trac ks</w>
r d</w>
accom pl
pre tty</w>
Pl an</w>
s and</w>
pl astic</w>
N ext</w>
ei gh
individu ally</w>
war ning</w>
In vest
alcoho l</w>
fin ed</w>
incorpor ated</w>
sus pen
succe eded</w>
edi tion</w>
conver gence</w>
Mu sic</w>
F ront</w>
sc ru
referen ces</w>
ins ist</w>
ing ness</w>
he ads</w>
clari fy</w>
quot as</w>
Bu il
ac a
col lect</w>
ü n
psy cho
W ed
19 th</w>
li ked</w>
execu tion</w>
every where</w>
environ mentally</w>
d ur
ber t</w>
pro secu
negoti ation</w>
li able</w>
t ress</w>
Co operation</w>
pan el</w>
alter na
Fam ily</w>
integr ate</w>
Ale x
see ks</w>
ag ents</w>
ca using</w>
0 3</w>
M r.</w>
4 6</w>
z o</w>
contex tual</w>
c us
accid ents</w>
ren a</w>
secon dly</w>
tow ard</w>
scienti sts</w>
H all</w>
m ar</w>
tr action</w>
No tes</w>
al um
oper ated</w>
treat ments</w>
avi ation</w>
us h</w>
D on
wides pread</w>
re venue</w>
Li thu
G U
stric tly</w>
resul ted</w>
sol di
rela tive</w>
or ous</w>
consul t
S P</w>
achiev ement</w>
G olf</w>
sub jec
hy dro
F A
encoura ged</w>
tro ops</w>
tis ation</w>
quot e</w>
rec y
re al
medic ine</w>
sha re
r on</w>
pr ised</w>
form ats</w>
alis ing</w>
N atur
0 2</w>
M ot
z u</w>
0 6</w>
ta r</w>
associ ations</w>
Au tom
mar g
tail s</w>
neu tr
V ill
Indu stry</w>
y i
amen ities</w>
qu alities</w>
V ide
repu tation</w>
nar row</w>
me ets</w>
phot o
w an</w>
flo ors</w>
Fundam ental</w>
will ingness</w>
explan ation</w>
sh ot</w>
mis s</w>
harm ful</w>
ex act</w>
be aring</w>
pres sing</w>
gradu ally</w>
air ports</w>
et res</w>
k es
mar ine</w>
g oo
A V
lo gic</w>
hi king</w>
at or
acqui red</w>
vir tually</w>
pu rely</w>
P lan
scri pt</w>
produc er</w>
preser ve</w>
in ner</w>
contra dic
compul sory</w>
beg ins</w>
eng ines</w>
cha irman</w>
inc enti
g ement</w>
fe ed
vari ed</w>
m 2</w>
Pro di</w>
um p</w>
- entity</w>
th r
pl ain</w>
t act</w>
min i
pres ti
Ser ver</w>
teach ing</w>
S ev
h n
del ic
cul tiv
v is</w>
ot ers</w>
bel ong
ge l</w>
S ud
Cas ino</w>
h ed</w>
graph ics</w>
tw ice</w>
cat ch</w>
ut most</w>
coun ts</w>
w ash
B O
o live</w>
D anish</w>
sp ite</w>
re porting</w>
let ters</w>
did n</w>
fo res
I P
under ground</w>
pos s
w il
d ness</w>
T A</w>
co ol
P as
speci alists</w>
ag er</w>
c m</w>
fav or
I A
' s</w>
Mar tin</w>
oper ator</w>
sta ke</w>
po o
g al
hor se</w>
cor por
ro l</w>
J er
Ci vil</w>
pe l</w>
Smo king</w>
ic als</w>
am ended</w>
ra dical</w>
frequ ency</w>
D s</w>
un fair</w>
p es
it a</w>
particip ating</w>
de a
Ex change</w>
L ST</w>
Ho li
stu ff</w>
rec re
ad ing</w>
panor amic</w>
Custom er</w>
got ten</w>
im per
dispu te</w>
ex ha
percent age</w>
meaning fully</w>
es is</w>
W ould</w>
boo st</w>
K a
Fran c
ul f</w>
pictu resque</w>
gover ning</w>
IM F</w>
w ild</w>
an o
R ic
cal end
sent ence</w>
cho ices</w>
ä n
sur prise</w>
so il</w>
ari o</w>
t les</w>
Res ort</w>
T O
implic ations</w>
sol ar</w>
magaz ine</w>
kilom etres</w>
h ec
exten ding</w>
stud ent</w>
con vention</w>
se ats</w>
al ongside</w>
Bo x</w>
hop es</w>
U sing</w>
recogni ze</w>
ob served</w>
Cast le</w>
- role
2 6
-role -91</w>
enfor cement</w>
au d
P ow
S c
ri ding</w>
ate dly</w>
sh r
sur prised</w>
inspi red</w>
d uration</w>
cris es</w>
on i</w>
J es
w age</w>
ev ol
it i</w>
g es
lic ens
air lines</w>
Qu ar
me al</w>
f loo
Comm on</w>
it ly</w>
n ish</w>
schem es</w>
recor ds</w>
inst al
contex tually</w>
Fur ther</w>
Fish eries</w>
gram matically</w>
sig ning</w>
inf ec
bon us</w>
der ly</w>
poo rest</w>
h in
inde x</w>
Ar gent
er as</w>
amaz ing</w>
L at
bloc ks</w>
M ill
rec ording</w>
jo in
m ouse</w>
2 7
sto res</w>
Em ployment</w>
B e</w>
telec ommun
comb ines</w>
Ky oto</w>
serv ing</w>
s h</w>
re pair</w>
estima ted</w>
y ard</w>
lab or</w>
evi dent</w>
ell ation</w>
Deutsch e</w>
m ere</w>
exp ense</w>
en vis
teach ers</w>
sophistic ated</w>
qu o
viol ation</w>
rati fication</w>
is ion</w>
vic tory</w>
f ly</w>
fe et</w>
B ased</w>
v in
incenti ves</w>
de plo
199 3</w>
Manag er</w>
v ar
re st
multil ateral</w>
as y</w>
Jav a
ech es</w>
2 50</w>
G all
whe reby</w>
comp res
S ever
tum n</w>
ad ays</w>
edi ted</w>
ab sta
par a</w>
A dri
medic ines</w>
H on
Pr o</w>
elimin ate</w>
pri ze</w>
lob by</w>
Rot ary</w>
man ual</w>
legitim acy</w>
am ed</w>
concer t</w>
Dub lin</w>
hi dden</w>
d il
cap abilities</w>
addres sing</w>
constitu tes</w>
atten d</w>
Musli m</w>
fil ter</w>
cust om</w>
old est</w>
Le ban
organ ise</w>
ap est</w>
str a</w>
re tain</w>
it ate</w>
An dre
8 6</w>
M ul
sur pris
th row</w>
con ferences</w>
P L
Cub a</w>
f on
neighb ours</w>
b right</w>
urg ency</w>
te ment</w>
op 3</w>
construc ted</w>
bo ats</w>
repe ated</w>
ren tly</w>
relation ships</w>
Inter governmental</w>
per mit</w>
is ting</w>
don e
R O</w>
di o
di tions</w>
a qu
op ens</w>
Indu stri
l or
For um</w>
K ir
d ges</w>
T em
ag gres
for d</w>
appro aches</w>
N or</w>
N a
G B</w>
chap ter</w>
port ers</w>
ig no
cam p</w>
hon est</w>
secon ds</w>
in forma
fo rec
d ary</w>
bo ards</w>
co decision</w>
Ter ms</w>
communic ate</w>
ap s</w>
D on</w>
m ol
ni ght
te in</w>
row n</w>
over looking</w>
enni um</w>
condi tioned</w>
ang le</w>
deb ating</w>
mo reover</w>
m it
m outh</w>
conveni ence</w>
S t</w>
H ave</w>
Re sid
fin anced</w>
Sub ject</w>
min e</w>
Inter nal</w>
D ar
L uc
schedul ed</w>
In done
nu tri
chec ked</w>
A ca
spec tr
gra m</w>
shor tly</w>
ho le</w>
arbit r
so ever</w>
genu inely</w>
L t
Auth ority</w>
th res
col ors</w>
accoun ting</w>
Sim il
Ma j
deser ves</w>
ace u
develop ers</w>
time table</w>
na il</w>
intellig ent</w>
com position</w>
campaig ns</w>
initi ally</w>
dis tur
w is
up grade</w>
ul timate</w>
d é
F ree
su perior</w>
i ans</w>
concent ration</w>
ari ans</w>
Rom an
n t</w>
Me eting</w>
G row
in adequate</w>
b le
per mission</w>
occup ation</w>
Li fe</w>
ta tive</w>
per su
d t</w>
exp and</w>
D ig
foun dations</w>
Slov akia</w>
sh el
desi rable</w>
w er
guarante eing</w>
mon y</w>
ro of</w>
or ation</w>
consider ations</w>
comple tion</w>
stun ning</w>
dr yer</w>
Po li
lo ads</w>
h ur
Java Script</w>
I C</w>
ish ment</w>
hy po
B ol
tor ate</w>
vill a</w>
Jav a</w>
2 nd</w>
An y
V ia</w>
y ards</w>
speci alized</w>
pil ot</w>
il er</w>
fe wer</w>
la m</w>
tis m</w>
fa x</w>
Mo der
junc tion</w>
condem n</w>
Vie w</w>
theat re</w>
min ent</w>
th care</w>
be er</w>
acqu isi
S S
d as</w>
20 th</w>
repe atedly</w>
ow nership</w>
exam ination</w>
Wed n
min or</w>
fore most</w>
spe eches</w>
pro xim
smo oth</w>
p ens
journ alists</w>
N L</w>
A ward</w>
open ness</w>
la im
Gar den</w>
ke ys</w>
econom ically</w>
c lock</w>
Pro ject</w>
descri be</w>
Ex ternal</w>
Th ree</w>
0 3
un necessary</w>
st ories</w>
cas ino</w>
sor ry</w>
K ong</w>
bro ken</w>
thor ough</w>
wh ol
remark able</w>
Tre k</w>
inten tions</w>
h ence</w>
Hoste l
plen did</w>
h i</w>
emp ty</w>
sch e
comm it</w>
believ ed</w>
A part</w>
ou d</w>
H ong</w>
with draw</w>
mi xed</w>
am ending</w>
trans l
exam ined</w>
Net work</w>
se as</w>
ingredi ents</w>
tu p</w>
sym pa
clic king</w>
may be</w>
resp ects</w>
expres s
woo den</w>
Davi d</w>
sol ved</w>
in er
R em
F le
Mo sco
Chil dren</w>
ei j
ob serve</w>
ast ro
S et</w>
0 4</w>
as signed</w>
under lying</w>
import antly</w>
as set</w>
audi ence</w>
to s</w>
M ulti
Cha irman</w>
f all
rev olution</w>
bath rooms</w>
V an</w>
1 1.
con stra
be gun</w>
hol der</w>
Qu ality</w>
in ter</w>
war ran
tra gic</w>
lo sing</w>
o es</w>
enjo ys</w>
US D</w>
join tly</w>
ex posed</w>
e ps</w>
M as
to il
Moroc co</w>
vi c</w>
are r</w>
Bos nia</w>
me als</w>
sti pul
Minis try</w>
di am
eth ical</w>
ell er</w>
Pla yer</w>
E F
He ads</w>
p tions</w>
l ing
K u
dra matic</w>
navig ation</w>
class ical</w>
stu died</w>
fortun ate</w>
trans lated</w>
toler ance</w>
pl ates</w>
on ics</w>
in door</w>
v acc
su r</w>
h ills</w>
Sto ck
repres enting</w>
compe te</w>
A 4</w>
s .com</w>
ca use-01</w>
cre w</w>
par tial</w>
br e</w>
s or</w>
b ought</w>
sc and
7 00</w>
ven ues</w>
trage dy</w>
ti l
co s
J ean</w>
port al</w>
Palestini ans</w>
Gre ens</w>
12 .
p a</w>
de fe
b ol
ca sting</w>
euro zone</w>
do s</w>
5 1</w>
clo sure</w>
zer o</w>
wi fe</w>
shi p
12 0</w>
sle ep</w>
tor ies</w>
t ability</w>
Je wish</w>
co ol</w>
G ames</w>
Vi et
coast al</w>
Wedn esday</w>
pre ferred</w>
ã o</w>
te ch</w>
secon dary</w>
listen ing</w>
paren tly</w>
fol der</w>
c larity</w>
ti a</w>
min al</w>
T P</w>
D ou
sa ke</w>
per pe
ari um</w>
Ira q
sub sequently</w>
gir ls</w>
electr ical</w>
tex tile</w>
or ca</w>
inform al</w>
t ag
stic k</w>
sac ri
Sk ype</w>
Sup port</w>
cal m</w>
wh at
op pon
ec o
Ad minis
ill ance</w>
stri ke</w>
ap parent</w>
To gether</w>
pi ed</w>
ad he
N az
compla ints</w>
up gra
certi fied</w>
advent ure</w>
pa ths</w>
gi ous</w>
tra ined</w>
elec toral</w>
consis ten
techni que</w>
s ch</w>
exp enses</w>
he ight</w>
in stantly</w>
al it
sugge sts</w>
si x
M A</w>
pro jec
op pose</w>
manag ers</w>
compar able</w>
St at
Fl ash</w>
An d
W ash
I ran
S pi
Chris ti
po ols</w>
rec all</w>
th ou
destro y</w>
L E</w>
b ay</w>
accord ingly</w>
Sy ria</w>
In st
A .</w>
transi tional</w>
collap se</w>
N ik
dis count</w>
Geor ge</w>
Par liam
T ar
doub ts</w>
voc ational</w>
C up</w>
M aria</w>
Le ft</w>
n it
Grow th</w>
af raid</w>
Mosco w</w>
ste ad
b ound
juris diction</w>
affec ting</w>
medi eval</w>
H igh
M is
sou l</w>
it ations</w>
lo ans</w>
fla v
al d</w>
ref res
Ph ili
199 1</w>
Al g
re vised</w>
terri ble</w>
r ating</w>
al leg
spectr um</w>
news letter</w>
co ck
A G
viol ent</w>
with draw
what soever</w>
K i
mor t
pen sions</w>
gran ting</w>
pe t</w>
stres sed</w>
jud ge</w>
cir cu
O ver
enjo ying</w>
ari ties</w>
K en
re ver
dat ory</w>
sh ore</w>
5 2</w>
Flo rence</w>
ld n</w>
Sec tion</w>
t ine</w>
ambi gu
V e
Sing le</w>
seem ed</w>
de em
au tumn</w>
Pla za</w>
uti n</w>
sovere ign</w>
depend ence</w>
re volu
d ate
civil ian</w>
a j
imp ly</w>
me tro</w>
Jo se
de voted</w>
no body</w>
ad ult</w>
s plendid</w>
dead line</w>
broad er</w>
P ur
desig n
N I</w>
Gaz a</w>
char m</w>
M it
l i</w>
all ed</w>
vi able</w>
ref used</w>
l ingu
un il
in ery</w>
promo ted</w>
fif th</w>
e fully</w>
inspec tion</w>
heal thcare</w>
su ited</w>
negoti ated</w>
Representa tive</w>
L ar
v an
har m</w>
optim al</w>
an swe
H al
u ght</w>
i red</w>
for gotten</w>
expan ded</w>
cha irs</w>
mom ents</w>
l are</w>
bas ically</w>
character istic</w>
ti les</w>
D or
tour nam
at lantic</w>
a ke</w>
De partment</w>
in ity</w>
escap e</w>
answe red</w>
il li
express ly</w>
Mac ed
198 9</w>
assur ance</w>
arran ged</w>
Air bus</w>
und ry</w>
s u</w>
pro spect</w>
legis l
h r
f alling</w>
di alog</w>
str ing</w>
del ays</w>
O pen
bed ded</w>
g lo
Ci tiz
simultane ously</w>
qu is</w>
pharm aceu
fal se</w>
bo asts</w>
P ay
certi fication</w>
T om
E mp
pub lish</w>
affor d</w>
s an
citiz en
Sp ace</w>
negoti ate</w>
bran ch</w>
princi pal</w>
canc ellation</w>
Stor age</w>
we red</w>
T us
Di e</w>
D ri
Be au
ID S</w>
1 000</w>
s essions</w>
manufactu red</w>
se es</w>
apos; ve</w>
ori entation</w>
integr ity</w>
fascin ating</w>
ar ray</w>
GN U</w>
po sts</w>
fi re
e. g</w>
P utin</w>
resid ential</w>
accur acy</w>
Rob ert</w>
I V
n ical</w>
dec lare</w>
remo val</w>
read s</w>
load ing</w>
Tai wan</w>
p ts</w>
cu rement</w>
Gen too</w>
er to</w>
Te am</w>
fav our
deb ated</w>
O therwise</w>
rec ru
ir on</w>
Con tin
ref use</w>
ul p
trans fers</w>
th umb
deser ve</w>
se g
rea u</w>
Presid ents</w>
fi x</w>
Sever al</w>
My SQL</w>
H en
m ic</w>
por tra
mag ne
I E
trans action</w>
2 ,
Fin nish</w>
under stand
distinc tion</w>
Aca de
mul tin
B ang
B at
P aci
. de</w>
par ks</w>
f ing</w>
id a</w>
big ger</w>
Ma ke</w>
mani pul
auth ors</w>
surve illance</w>
be ef</w>
cont am
arrang ement</w>
pic ally</w>
newsp aper</w>
alterna tives</w>
ar ts</w>
G ro
Al ps</w>
i x</w>
u plo
territ ories</w>
E qu
renew ed</w>
prepar ations</w>
mechan ical</w>
. org</w>
ag e
continu ously</w>
M el
purch ased</w>
popul ations</w>
ati vity</w>
under take</w>
green house</w>
observ ation</w>
ign ore</w>
ce iling</w>
modi fy</w>
soldi ers</w>
li vely</w>
ass es</w>
Stu dio</w>
b lu
plic ation</w>
measure ment</w>
v ary</w>
sam ple</w>
N on
calend ar</w>
A partments</w>
view ing</w>
li min
ic on</w>
lay out</w>
N at
Holi day</w>
F is
rul ing</w>
trou ble</w>
L y
a c</w>
ur ities</w>
sion al</w>
oper ative</w>
fin ds</w>
Ma a
di ving</w>
P OS</w>
20 12</w>
p apers</w>
p ace</w>
ch en
Fi re
bene ficial</w>
f i</w>
Hostel sc
PR O
stric ht</w>
o v</w>
Produc t</w>
ten s</w>
tu m</w>
instal lations</w>
ac u
taxpay ers</w>
resid ents</w>
pain ting</w>
gu il
plu g</w>
commis sion
L ic
presid ential</w>
Maa stricht</w>
Hostelsc lub</w>
ques tion
ep iso
con solid
7 2</w>
necess ity</w>
z ar
motor way</w>
deter i
nation als</w>
explic itly</w>
N ig
rati fied</w>
foc uses</w>
M ur
s ers</w>
Col le
stop ped</w>
shut tle</w>
qu e
fe a
K r
suspen ded</w>
bu g</w>
achiev ements</w>
dimen sions</w>
U p</w>
A rea</w>
credi ble</w>
M and
fre ight</w>
preser ved</w>
employ ers</w>
per secu
Wash ington</w>
adjust ment</w>
access ories</w>
Su ite</w>
whe el</w>
vir tu
un certainty</w>
than king</w>
bab y</w>
el ed</w>
dele te</w>
A 3
post al</w>
6 8</w>
log ne</w>
Part nership</w>
reg ret
2 8
possib le-01</w>
cook ies</w>
bel ongs</w>
qu et</w>
o ts</w>
surve y</w>
gi ft</w>
bus es</w>
Re ad</w>
st ro
reflec tion</w>
per ce
F our
com pos
ad mit</w>
U r
Jo int</w>
slo pes</w>
zz i</w>
con version</w>
resear chers</w>
preven ted</w>
vari able</w>
indic ators</w>
com posed</w>
bu ying</w>
re sum
enc ry
d au
Pre mi
di al</w>
des ktop</w>
b o</w>
foc using</w>
tax i</w>
T ic
ar gue</w>
Tun is
B la
ag u
super b</w>
travel lers</w>
sh oc
co al</w>
Re gar
feat uring</w>
Ph one</w>
E s
Acade my</w>
cat alogue</w>
K al
commer ce</w>
Euro pol</w>
privile ged</w>
ex hib
justi fy</w>
ad ed</w>
neighbour hood</w>
Cat al
k new</w>
identi fication</w>
bureauc racy</w>
R ural</w>
S pr
telecommun ications</w>
res cu
Y outh</w>
citizen ship</w>
ch ur
thor ou
7 1</w>
C o</w>
lin ing</w>
ici an</w>
defic its</w>
Z ur
m itting</w>
Ma c</w>
C ali
dict ator
dest inations</w>
wh enever</w>
excur sions</w>
canc elled</w>
1 1
Democ ratic</w>
supple mentary</w>
Paci fic</w>
clo sing</w>
a uc
n ur
li fer
wh el
safe guar
bus y</w>
Con serv
publish ing</w>
an n</w>
R ap
Li b
reli ef</w>
al location</w>
sta in
hol m</w>
chem icals</w>
Ch ech
advis e</w>
vis its</w>
plac ing</w>
in sufficient</w>
d res
dea ths</w>
qu est</w>
threat ened</w>
interven e</w>
ener y</w>
as er</w>
mach inery</w>
affor dable</w>
W ol
compreh en
P ower</w>
um es</w>
wor rying</w>
win ner</w>
occu pied</w>
ari ous</w>
to x
ha ir
demonstra tes</w>
wid th</w>
sc ha
ess ing</w>
Po ker</w>
ac tor</w>
Vide o</w>
H our</w>
B SE</w>
fail s</w>
bran ds</w>
Soci ety</w>
premi um</w>
certific ate</w>
promis ing</w>
defin ing</w>
autom otive</w>
L ev
5 4</w>
Ma in</w>
fel l</w>
9 2</w>
dis pens
bre ach</w>
atten ded</w>
Bur ma</w>
sign als</w>
Con sul
gen ous</w>
fa i
conserv ation</w>
agre es</w>
A sh
competen ces</w>
Yugosla via</w>
contro versi
unanim ously</w>
mis sed</w>
pro test</w>
g ross</w>
behavi or</w>
Zim bab
r he
emer ged</w>
comple x
D O
jud gment</w>
p in
a is</w>
inc en
D E
M obile</w>
coordin ate</w>
sun ny</w>
man datory</w>
B av
ton nes</w>
su res</w>
over whel
m on</w>
Th ird</w>
mis takes</w>
precis ion</w>
preci ous</w>
consist ently</w>
author ised</w>
Pri ze</w>
ti mely</w>
noti fied</w>
r is</w>
cam eras</w>
el low</w>
K on
sub stitu
human ity</w>
Col om
B ab
ide ally</w>
ne x</w>
applic ant</w>
Stand ard</w>
th ic</w>
reve aled</w>
far ms</w>
vis e</w>
Lithu ania</w>
sy mb
im ported</w>
exhibi tions</w>
do g</w>
Down load</w>
D al
contrac tual</w>
offici ally</w>
evalu ate</w>
bo ar
author ized</w>
inter n
intellig ence</w>
rec ession</w>
r in
Bu reau</w>
organiz e</w>
wit n
v ine
transi t</w>
pe tition</w>
tow er</w>
imper ative</w>
quali fications</w>
bre ath
Pro v
Mo z
the red</w>
pat ents</w>
Invest ment</w>
st aying</w>
re alize</w>
acc um
ve sting</w>
ke l</w>
Olymp ic</w>
lo go</w>
Mar ina</w>
p it
ste m</w>
d ar
I ni
B ran
uni ons</w>
S au
Iran ian</w>
innov ations</w>
0 4
terror ists</w>
el derly</w>
o tic</w>
chi ef</w>
O S
withdraw al</w>
red und
b icy
Ex peri
contribu ting</w>
5 6</w>
sc an
Liber al</w>
sc ar
Un til</w>
ar rest</w>
g ers</w>
conven tions</w>
T it
inten si
6 6</w>
syste matic</w>
ist a</w>
sc ulp
in di
c ope</w>
public ations</w>
pro curement</w>
te enth</w>
al -
ar range</w>
no tably</w>
Co logne</w>
C ar</w>
po ker</w>
log istics</w>
rele ases</w>
he l</w>
as m</w>
Soci alists</w>
tre a
sk a</w>
bal ances</w>
replac ement</w>
prec au
li tion</w>
reg im
5 3</w>
sche dule</w>
ner ships</w>
bene fici
f ro
mis es</w>
A IDS</w>
th es</w>
boo ked</w>
res or
gu ards</w>
M B</w>
we i
am ent</w>
per cep
inter active</w>
pos ure</w>
b les</w>
z ones</w>
dol lars</w>
indic ates</w>
re act</w>
experi encing</w>
h ot
dri ves</w>
regul ate</w>
Ar chi
Bud apest</w>
tro pical</w>
J ames</w>
tran s</w>
re tail</w>
ag o
fl ying</w>
mo ves</w>
en lar
1. 5</w>
im posing</w>
ap parently</w>
initi ated</w>
gener ous</w>
acti vis
2. 0</w>
e u</w>
un employed</w>
aca demic</w>
Sloven ia</w>
patter n</w>
na m</w>
So li
purch asing</w>
Char les</w>
v ice</w>
Ne ws</w>
t one</w>
comp rises</w>
post pon
Zur ich</w>
de tri
US S</w>
ten ed</w>
acquisi tion</w>
R h
poten tially</w>
st al
ell s</w>
cent ers</w>
pl as
s now
photograph s</w>
bio diversity</w>
gu es</w>
claim ed</w>
R ou
we igh
trea ties</w>
un usual</w>
ste am</w>
sa iling</w>
s sel
F ull</w>
we d
u l</w>
G l
pursu ed</w>
cho se</w>
bon ds</w>
P A</w>
O s
architec tural</w>
ell o</w>
consisten cy</w>
L as</w>
rati o</w>
C F
where ver</w>
ti ps</w>
pl ed</w>
Salz burg</w>
ali ke</w>
V il
Ch oo
s on
arbitr ary</w>
F on
sen ior</w>
pas sion</w>
vent ure</w>
differen ti
sp are</w>
war s</w>
bl ame</w>
horiz on
dispu tes</w>
t reas
presti gious</w>
pos ted</w>
Sm all</w>
C S
f itted</w>
peri ph
Sou thern</w>
t te</w>
pro pri
ou ts</w>
ear th
archi ve</w>
Mal ta</w>
Commun ist</w>
v oters</w>
tak ings</w>
ef s</w>
air line</w>
In nov
S em
Lan gu
cre ature</w>
S U
pursu ant</w>
extre mis
R ad
struc tured</w>
bureauc ratic</w>
protec tion
op ho
ch at</w>
subscri be</w>
speci fy</w>
e x</w>
ate -01</w>
aliz ing</w>
T E</w>
por ter</w>
frequ ent</w>
er ad
draf ting</w>
di versi
plan e</w>
perspec tives</w>
clo thing</w>
E lev
5 9</w>
é e</w>
monu ments</w>
heav ily</w>
st ops</w>
ass emb
govern ment
war mly</w>
emphas ised</w>
occur s</w>
li qui
ad er</w>
A do
thumb nail</w>
meas uring</w>
ed y</w>
re turns</w>
Th omas</w>
A M
sp lit</w>
cro ps</w>
Nor dic</w>
De posit</w>
concer ts</w>
18 th</w>
announ ce</w>
A v
undermin e</w>
a sion</w>
Pl at
Is lam</w>
t ough</w>
gg er</w>
ambi tion</w>
W r
C ent
po t</w>
ful filled</w>
Pl ace</w>
O ut</w>
f a</w>
Leban on</w>
ing ent</w>
Con ditions</w>
tribu te</w>
Def ence</w>
du al</w>
M s</w>
pres sed</w>
M en
sa d</w>
i res</w>
hes itate</w>
C N
drin king</w>
S eries</w>
Parliam entary</w>
F ron
tra ins</w>
priv a
feed back</w>
E A</w>
han ded</w>
per forming</w>
bio logical</w>
ten sion</w>
S ony</w>
Oper a</w>
patter ns</w>
ty pically</w>
victi m</w>
s mart</w>
sugges tion</w>
su me</w>
Ob viously</w>
thres hold</w>
bre aking</w>
bo xes</w>
Simil arly</w>
S hop</w>
Dig ital</w>
s l
loc ate</w>
st ones</w>
conv ince</w>
ra tional</w>
au to
Argent ina</w>
inter institutional</w>
e b
co des</w>
cau ght</w>
pre limin
under takings</w>
download ed</w>
Web site</w>
Palest ine</w>
dec ent</w>
sig nat
G a
v es
v or
progres sive</w>
fin dings</w>
Citiz ens</w>
enlar ged</w>
aff ili
B eij
sand y</w>
ach t</w>
rela xed</w>
liter ature</w>
Iraq i</w>
Ado be</w>
mil it
lo vers</w>
assu red</w>
HT ML</w>
ess ence</w>
inten se</w>
te t</w>
cre ativity</w>
controversi al</w>
can cel</w>
L A</w>
slow ly</w>
mar quis</w>
i um</w>
fall en</w>
L ei
gu it
pre mises</w>
op t</w>
E X
it ably</w>
A S</w>
expan ding</w>
tan gible</w>
tal ked</w>
le ments</w>
hand led</w>
confi dent</w>
T an
f at</w>
de gre
hosp ital</w>
he ated</w>
Scot land</w>
ra tions</w>
mat ure</w>
emis sion</w>
desig ner</w>
prac tically</w>
b lan
C S</w>
Beij ing</w>
sil ence</w>
oc ol
non etheless</w>
favour ite</w>
sett led</w>
ligh ting</w>
1 60</w>
declar ations</w>
ti gh
dis plays</w>
A K
w o
&apos; m</w>
t an</w>
conver ted</w>
p ays</w>
fin ances</w>
Pers onal</w>
integr al</w>
st -01</w>
P ort</w>
part nerships</w>
Mil an</w>
je op
dum ping</w>
S earch</w>
C ir
expres sing</w>
head quarters</w>
L os</w>
munici p
6 7</w>
inclu sive</w>
substan tially</w>
inter medi
rac ism</w>
ad t</w>
wor ry</w>
war ming</w>
low est</w>
ist ent</w>
b ill</w>
d al</w>
consequ ently</w>
Elev ator</w>
5 8</w>
Plu s</w>
chil d
M ess
C he
trans formation</w>
Con cer
mean time</w>
blin d</w>
ti er</w>
h of</w>
domin ant</w>
u ph
es h</w>
Sci ence</w>
bor ne</w>
Lu ggage</w>
wor ding</w>
A l</w>
y o</w>
respec tively</w>
ra ises</w>
movi es</w>
com ings</w>
chur ches</w>
Pow er
prelimin ary</w>
ex changes</w>
Wh ich</w>
He ating</w>
w ages</w>
di es
dev ast
r ings</w>
B R
ke eps</w>
Fri end
cop ies</w>
b lo
Comm er
Bud getary</w>
incen tive</w>
prev ail
ich t</w>
co verage</w>
Maced onia</w>
Lab our</w>
mar king</w>
specific ations</w>
Ham as</w>
Lib ya</w>
th esis</w>
sil ver</w>
in ven
den ly</w>
avoi ded</w>
Dec lar
2 1st</w>
P ass
P ap
ad just</w>
fla g</w>
a res</w>
5 7</w>
graph y</w>
spo ts</w>
se gment</w>
g ate</w>
W ater</w>
Mol do
au x</w>
N T</w>
xi de</w>
L U
z y
restric t</w>
regret table</w>
i j
cat astro
ang er</w>
ro s</w>
b al</w>
s k</w>
lifer ation</w>
E G
ow ing</w>
conver t</w>
demo graphic</w>
sta ke
di ver
b ling</w>
T ex
Alban ia</w>
statis tical</w>
mag ic</w>
im peri
reci pi
ex posure</w>
weap on</w>
a por
Stock holm</w>
he im</w>
st ays</w>
po c
uti lis
8 8</w>
condem ned</w>
a ve
a us
short comings</w>
sh oul
for cing</w>
ob o
it ual</w>
dam aged</w>
Ro ad</w>
ga ining</w>
wel ve</w>
si ans</w>
wa ke</w>
ac le</w>
M aster</w>
ma ps</w>
org -role-91</w>
have- org-role-91</w>
te sti
control ling</w>
Can on</w>
recei ves</w>
a es
l er
acknowled ged</w>
Po int</w>
proxim ity</w>
lic ence</w>
f ate</w>
r at</w>
be it</w>
sim pl
d ity</w>
cat ering</w>
thorou ghly</w>
so c
expla ins</w>
harmon y</w>
execu ted</w>
diff er</w>
AR E</w>
the ore
plat forms</w>
0 2
out set</w>
Sel ect</w>
trans atlantic</w>
ini um</w>
Zimbab we</w>
S ig
Im age</w>
am end</w>
Viet nam</w>
3 rd</w>
igno red</w>
O E
ten ing</w>
favor ite</w>
arti ficial</w>
degre es</w>
deem ed</w>
sty les</w>
har bour</w>
ed itor</w>
discipl ine</w>
L ate
B lue</w>
vis itor</w>
pharmaceu tical</w>
coo king</w>
k en
ch ocol
J an
C 5</w>
tw in</w>
public ly</w>
develop s</w>
N um
rejec tion</w>
ini an</w>
no ver</w>
no tion</w>
Tra vel</w>
f ought</w>
G o</w>
belong ing</w>
id en
A M</w>
tor ture</w>
Eng ine
notic ed</w>
ag a</w>
con fusion</w>
war ding</w>
regim es</w>
Ac cess</w>
A bo
monit ored</w>
ba g</w>
in direct</w>
consul t</w>
Y O
rub ber</w>
less on</w>
hop ed</w>
as is</w>
draf ted</w>
Colle ge</w>
autonom y</w>
acqu ire</w>
she ets</w>
Gu ide</w>
str ange</w>
work shops</w>
dis appointed</w>
descri bes</w>
accommo date</w>
las er</w>
grap h</w>
doc tor</w>
work shop</w>
hol es</w>
go s</w>
Tu esday</w>
Every thing</w>
Declar ation</w>
au f</w>
ver ies</w>
pl ing</w>
authen tic</w>
M ach
p in</w>
isol ated</w>
Indone sia</w>
str onom
mo tions</w>
ke en</w>
incor rec
In stru
b ass
tel ling</w>
ad j
bo ts</w>
te x</w>
Cle arly</w>
p ack</w>
meas ured</w>
O l
infring ement</w>
Pro vi
gene tic</w>
ent ries</w>
Mon t
I l
temper atures</w>
simpli fication</w>
colum n</w>
i P
7 7</w>
incor porate</w>
choo sing</w>
V it
Loc ation</w>
th ro
reg n
bu t
b ac
Non etheless</w>
quot a</w>
è s</w>
bir ds</w>
appro x</w>
simpli fy</w>
p o</w>
g on</w>
en chan
bl ack
Ar c
un fortunate</w>
dec re
b ach</w>
Bud get</w>
m ale</w>
Pi az
pat ch</w>
C ari
termin al</w>
speci alities</w>
m i</w>
Prof ession
Every one</w>
indic ation</w>
ag ent</w>
B ou
pen alties</w>
M em
pre requ
ing en</w>
fur b
fe ars</w>
sha ped</w>
Con tact</w>
Choo se</w>
equ ity</w>
edi t</w>
cos me
gover ned</w>
P on
government -
government- organization</w>
wat ching</w>
inter action</w>
RO M</w>
H ence</w>
Ad v
parad ise</w>
ban k
6 2</w>
rac ing</w>
be an</w>
0 ,000</w>
sig nature</w>
G ulf</w>
appreci ated</w>
Experi ence</w>
B 5</w>
al a</w>
cam ps</w>
B lu
tel ls</w>
ensu red</w>
d ens
l acking</w>
gi an</w>
adminis tr
Com ple
under taking</w>
Pe ace</w>
c at</w>
ali tion</w>
accep ts</w>
uni fication</w>
s porting</w>
complex ity</w>
accep ting</w>
rol ling</w>
er ly</w>
activ ated</w>
re conc
propor tion
eng ag
Sta ff</w>
re stor
in quiry</w>
A z
survi val</w>
Li ve</w>
reiter ate</w>
prohibi ted</w>
photograph y</w>
T ru
excep tions</w>
bir th
G old</w>
un like</w>
az z</w>
foun ding</w>
ear ning</w>
A L</w>
rein force</w>
qu id</w>
mic ro</w>
respec ting</w>
E D</w>
Addi tionally</w>
A k
tail ored</w>
h em
t ant</w>
emer ge</w>
der og
h en</w>
air y</w>
r ics</w>
8 9</w>
circ le</w>
E co
re per
as pi
ad m
performan ces</w>
C R
si lic
B y
b att
bat tery</w>
reduc tions</w>
f esti
s par
re vi
l uc
8 2</w>
vol can
teach er</w>
L ad
download ing</w>
Fri ed
character ised</w>
cap ture</w>
c ure</w>
S how</w>
pro of
oun ded</w>
in en</w>
h at
de pri
comp are</w>
LA F</w>
al arm</w>
con junction</w>
po t
9 4</w>
W all</w>
pass es</w>
a pe
D anu
Cali for
Me an
under line</w>
gr and</w>
Sud an</w>
thou ghts</w>
j o</w>
Ti bet</w>
P ack
L oo
sup er</w>
Pu erto</w>
re verse</w>
exce ed</w>
S et
k g</w>
celebr ate</w>
def ending</w>
ar di
I B</w>
fail ing</w>
prop ag
en cia</w>
ak es</w>
der ived</w>
p act</w>
delic ate</w>
sem i</w>
Ri ght</w>
Le ague</w>
rac ies</w>
la kes</w>
gran ts</w>
f oods</w>
ab und
autom ation</w>
k -01</w>
direc tions</w>
b id</w>
mem or
respon ses</w>
E EC</w>
mono po
engine ers</w>
surpris ing</w>
Nor way</w>
survi ve</w>
in jec
is n</w>
B un
2. 5</w>
load ed</w>
guid ance</w>
de stri
param eter</w>
ga ins</w>
den ied</w>
continu ation</w>
susta ined</w>
E dition</w>
fi res</w>
BM W</w>
sur fing</w>
share holders</w>
f r
earth qu
ther ing</w>
stu ffs</w>
Organ ization</w>
enem y</w>
b is
P M</w>
H ei
gi o</w>
de partments</w>
W ell
le ather</w>
che ese</w>
bran ches</w>
inv itation</w>
domin ated</w>
7 8</w>
im men
C lim
inter im</w>
f at
horizon tal</w>
t z</w>
R oc
His tory</w>
G olden</w>
Emp ire</w>
subsidi ary</w>
su d
g an</w>
ta pe</w>
h us
ail and</w>
Elec tr
them es</w>
listen ed</w>
challeng ing</w>
an do</w>
gir l</w>
ob servers</w>
incredi ble</w>
date -entity</w>
Com pu
bra in</w>
be red</w>
ght ful</w>
are n</w>
cry stal</w>
E T</w>
Ca thedral</w>
separ ately</w>
re alized</w>
D I
bas es</w>
P in
ad mi
Or der</w>
ti ble</w>
fi able</w>
aband oned</w>
Industri al</w>
. 00</w>
rob ust</w>
p ar</w>
no vel</w>
h an</w>
circul ation</w>
P ot
tre mend
re furb
S V</w>
adj usted</w>
sk illed</w>
volun te
character ized</w>
A partment</w>
e vil</w>
è re</w>
g em
environ ments</w>
row ing</w>
aci ón</w>
Natur ally</w>
C lin
Abo ve</w>
tack ling</w>
sear ching</w>
def ense</w>
ri ed</w>
s ar
Un der
D C</w>
toil et</w>
recy cling</w>
sun g</w>
fo ld</w>
W o
win d
min ing</w>
b adly</w>
reduc es</w>
b i</w>
Th ailand</w>
Bi o
An onymous</w>
ban ned</w>
G am
sc enery</w>
ro se</w>
b one</w>
u x
ph s</w>
ex emp
198 0</w>
doc tors</w>
def ects</w>
ent ally</w>
Moder n</w>
op tical</w>
j i
un stable</w>
consoli dation</w>
V el
H us
ra k
calcul ated</w>
Ch an
S D</w>
Li br
econom ics</w>
connec ting</w>
K or
EM U</w>
lingu istic</w>
S om
st adt</w>
b ird</w>
v re</w>
pursu ing</w>
min ds</w>
po wered</w>
F ar
Do cu
se af
pion e
k ids</w>
autom ated</w>
ni k</w>
St art</w>
gran d
author isation</w>
6 3</w>
in k
continu ally</w>
spir itual</w>
che stra</w>
Vis it</w>
po lit
quanti ties</w>
pi ano</w>
mo des</w>
g or
for t</w>
flow ers</w>
di os</w>
Pro gram</w>
Ger man
G ran</w>
Par t</w>
st ayed</w>
cle arer</w>
E ur
bre ad</w>
erv ation</w>
pe destri
multi media</w>
mir ror</w>
analy ses</w>
acc used</w>
sol ving</w>
investig ate</w>
pion ship</w>
Fi f
7 3</w>
ge red</w>
A th
00 1</w>
ol o</w>
compati bility</w>
ab sur
ho sts</w>
6 9</w>
pre ferences</w>
mur der</w>
h en
a to</w>
in y</w>
im prison
fe els</w>
Tunis ia</w>
prof ound</w>
al liance</w>
Ap ple</w>
wri ter</w>
sh ir
chec king</w>
sch ol
announ cement</w>
Pri v
Bud d
D R</w>
A qu
pro minent</w>
pl ur
A D</w>
ta ught</w>
abo lition</w>
Some times</w>
str o</w>
er ra</w>
b acking</w>
breath taking</w>
acqu is</w>
7 4</w>
p our</w>
assum ed</w>
requ iring</w>
o ci
Lt d</w>
ra dic
Tech nical</w>
iden tical</w>
bro ch
S or
Cur rently</w>
Ob jec
uni or</w>
alum inium</w>
n ya</w>
al lies</w>
Res er
lig ence</w>
sinc e
pe ak</w>
concent rated</w>
Col lec
re turning</w>
H er</w>
demonstra tion</w>
D ep
know ing</w>
h ung
S add
cros sing</w>
imp lies</w>
ambi tions</w>
sec urities</w>
pain tings</w>
adap tation</w>
op tional</w>
gar age</w>
particip ated</w>
el le</w>
ar rested</w>
k t</w>
vege tables</w>
secu red</w>
s pl
congratul ations</w>
des per
H au
sud denly</w>
insul a</w>
enthusi asm</w>
glob alization</w>
con vers
up coming</w>
recei pt</w>
f ing
U C
den y</w>
low s</w>
dele ted</w>
trans lations</w>
Tra ining</w>
fin est</w>
Mill ennium</w>
inv ested</w>
L en
Ex cell
rail ways</w>
fur thermore</w>
O K</w>
row s</w>
un preced
semin ars</w>
ir o</w>
N av
soci o</w>
gar t</w>
ed iting</w>
chocol ate</w>
s ement</w>
i er</w>
human s</w>
Soli d
ter ies</w>
log in</w>
sens or</w>
newsp apers</w>
h ire</w>
f ted</w>
sla u
bre aks</w>
Dol om
back ed</w>
inter view</w>
' t</w>
b acks</w>
unanim ous</w>
i Phone</w>
at tract</w>
S he
O rig
investig ations</w>
sc ore</w>
al lo
s our
preven tive</w>
E D
b es
6 1</w>
sal t</w>
par tition</w>
deman ded</w>
M es
g olden</w>
dec reas
L and
Califor nia</w>
speci alised</w>
Moldo va</w>
us al</w>
fu r</w>
dang ers</w>
T C</w>
P y
8 1</w>
radi ation</w>
en coun
Al pine</w>
perman ently</w>
assess ments</w>
W all
par tially</w>
comb ining</w>
g are
disco very</w>
consul ted</w>
d ay
T en
D res
x ing</w>
b ic</w>
Sch ul
Mean while</w>
contribu tes</w>
Con tent</w>
ob taining</w>
offic ers</w>
separ ated</w>
ograph y</w>
f ting</w>
am in</w>
Danu be</w>
ba thing</w>
m ad
estima tes</w>
unpreced ented</w>
h o</w>
fif teen</w>
explic it</w>
optim um</w>
k ill</w>
au g
S C</w>
B lan
it y
dis man
pra g
N A</w>
-0 4</w>
mon thly</w>
super visory</w>
SA P</w>
tu i
celebra ted</w>
X P</w>
trans formed</w>
marri ed</w>
Ty rol</w>
se tup</w>
lo y
cohe rence</w>
G ot
stake holders</w>
Est onia</w>
differen tly</w>
m as</w>
An ton
tra ils</w>
sy mp
dec entr
F ax</w>
wal ks</w>
w itness</w>
do ssi
p um
guid es</w>
n 't</w>
less ly</w>
competi tors</w>
pi x
g ged</w>
cha e
centr ally</w>
s son</w>
k it</w>
am ple</w>
Ex plo
Ber n
S L
win ners</w>
b en</w>
al beit</w>
a us</w>
7 6</w>
explo it</w>
Stu tt
Mar k</w>
Ma il</w>
la ying</w>
Ad d</w>
eli gible</w>
down town</w>
consis ting</w>
accoun tability</w>
T al
c i</w>
un likely</w>
Friend ly</w>
stri ve</w>
G or
noti fication</w>
exc ess</w>
Th er
struc k</w>
landscap es</w>
convic tion</w>
capac ities</w>
R ail
trade marks</w>
restor ation</w>
be ars</w>
tric ts</w>
a. m.</w>
Dis cover</w>
er ation</w>
di r
ARG 3</w>
dictator ship</w>
clari fication</w>
Cli ent</w>
v end
independ ently</w>
Hoste l</w>
ben ch
C ould</w>
L ine</w>
ic op
ul tra</w>
re conciliation</w>
Su n</w>
H D</w>
C ab
formul a</w>
P SE</w>
fl ash</w>
remo ving</w>
dis par
appreci ation</w>
t welve</w>
see kers</w>
rac es</w>
commis sion</w>
warran ty</w>
un limited</w>
p or</w>
ke ting</w>
f an
ali ve</w>
Sadd am</w>
B ad</w>
t ons</w>
stri king</w>
3 ,
mis si
hand ic
since rely</w>
lab els</w>
hi de</w>
v ine</w>
carri er</w>
Ab out</w>
infra structures</w>
Wor k</w>
E ff
st en
16 th</w>
to ol
offic er</w>
gene tically</w>
gre w</w>
B il
adequ ately</w>
rou ghly</w>
motiv ated</w>
che aper</w>
Commun ication</w>
pr on
k no
g li
per mits</w>
s q
interpre ted</w>
acti vate</w>
e gr
Regi on</w>
isol ation</w>
O t
D ü
A pp
ili ans</w>
conveni ently</w>
Wor king</w>
vic inity</w>
s .</w>
dam aging</w>
ro les</w>
colon ial</w>
m ir</w>
justi fication</w>
contin ental</w>
str ingent</w>
H it
rescu e</w>
ig nor
ard ous</w>
Ren a
A h
influ enced</w>
constra ints</w>
cap ability</w>
them a
bro ther</w>
CH F</w>
employe e</w>
An ti
ren der</w>
h ne</w>
D oc
y ellow</w>
inter governmental</w>
bur gh</w>
inv ent
bra tion</w>
dau ghter</w>
ga thered</w>
gra ve</w>
distribu te</w>
in vesting</w>
eng er</w>
now adays</w>
Regar ding</w>
prof iles</w>
pr ud
clo thes</w>
labor atory</w>
excell ence</w>
5 th</w>
en rich
Pro cess</w>
promo tes</w>
se in</w>
p regn
R ather</w>
th ouse</w>
observ ations</w>
cul inary</w>
circu it</w>
ren t
incid ent</w>
co alition</w>
pres cri
po p</w>
In clu
eri al</w>
ve -01</w>
Stutt gart</w>
g ar</w>
contro ller</w>
indi genous</w>
f its</w>
si ght
moder ate</w>
consci ous</w>
char ter</w>
b ags</w>
inc ur
gy m</w>
R ental</w>
mod est</w>
iss ance</w>
condi tional</w>
presenta tions</w>
pre me</w>
tu be</w>
ti ght</w>
ter ror</w>
el e</w>
ri vers</w>
resor ts</w>
er b
trans fer
Ang el
sum mary</w>
pan els</w>
Pla ya</w>
foun der</w>
s cep
neutr al</w>
an ing</w>
P ho
tis su
re fined</w>
ear ned</w>
week ly</w>
log ically</w>
expl oring</w>
F our</w>
trans late</w>
syn chron
S har
sof a</w>
datab ases</w>
a rest</w>
B our
t ness</w>
scen ario</w>
pu p
boar ding</w>
Chris t</w>
re venues</w>
ga stronom
ta res</w>
pl au
impe tus</w>
explan ations</w>
Com e</w>
pro liferation</w>
distingu ished</w>
Profession al</w>
trans mitted</w>
for ums</w>
us al
soci ally</w>
advoc ate</w>
divi de</w>
stimul ate</w>
ES CO</w>
um a</w>
magne tic</w>
tor ic</w>
New sp
dispens able</w>
del ayed</w>
ri gi
or i</w>
tou ched</w>
vac u
ic ed</w>
b bean</w>
ma iling</w>
comm only</w>
oo t</w>
W C</w>
be sides</w>
Ri o</w>
re alised</w>
shar p</w>
dis tricts</w>
Chech nya</w>
reco ver</w>
my st
f est</w>
curren cies</w>
V al</w>
symbo lic</w>
feel ings</w>
ar t
d -01</w>
F air</w>
v ar</w>
ter ial</w>
separ ation</w>
lo ved</w>
config ure</w>
engag ement</w>
Chi ef</w>
spe aks</w>
enti ties</w>
TI ON</w>
S TE
H ans</w>
k ic
ar is
V ista</w>
co inci
F OR</w>
en counter</w>
as ks</w>
ul a</w>
l ds</w>
ha ven</w>
el and</w>
d ged</w>
Jose ph</w>
home page</w>
minim al</w>
bloc ked</w>
es c
bound aries</w>
coun tless</w>
avoi ding</w>
trade mark</w>
I ON</w>
E T
Ch ange</w>
CE O</w>
sur plus</w>
inev itable</w>
Ra dio</w>
l ens</w>
ci v
li an</w>
d ella</w>
Super visory</w>
goo d
Prof essor</w>
hop efully</w>
9 00</w>
ö n
ha us</w>
Ho ly</w>
sus pension</w>
ine quality</w>
life style</w>
safe ly</w>
reti rement</w>
Jer usal
Au to
th in</w>
pri de</w>
inter rog
ex ter
MP 3</w>
Cari bbean</w>
UN ESCO</w>
out lined</w>
em bedded</w>
fo x</w>
bo y</w>
i x
C ross</w>
comple ment</w>
cin ema</w>
Jerusal em</w>
h tm
end ers</w>
fundament ally</w>
f s</w>
counter fe
air e</w>
ide ological</w>
er ion</w>
Sa har
el abor
Cap tain</w>
8 7</w>
re pa
ori um</w>
in dispensable</w>
Clim ate</w>
k illing</w>
Alex ander</w>
ran k</w>
haz ardous</w>
gradu al</w>
audi t</w>
pe tro
oppon ents</w>
exten ds</w>
Kore an</w>
A ga
us ter</w>
hung er</w>
ge ar</w>
e k
exis ted</w>
H IV</w>
pre fer
Do ha</w>
swe et</w>
simpli fied</w>
ar do</w>
Al low</w>
A C</w>
inev itably</w>
S W
in land</w>
syste matically</w>
audi o
min es</w>
install ing</w>
cy cling</w>
ARG 2
ARG2 -of</w>
ne ed
res istant</w>
R ol
Christi ans</w>
rein forced</w>
ten d
jud ges</w>
D im
g ases</w>
foo d
capit alism</w>
ge ous</w>
dis agree</w>
g ically</w>
cool ing</w>
Le on
Ann ual</w>
ti p</w>
house hold</w>
des c
Jes us</w>
Cor por
rul ed</w>
credi ted</w>
c .</w>
desig ners</w>
Spr ing</w>
radi o
L au
tiz ation</w>
on ian</w>
harmon ised</w>
en shr
after wards</w>
sum mar
open ly</w>
law yers</w>
Man u
ban ds</w>
Me di
Je ws</w>
titu des</w>
Bi g</w>
un de
lim itations</w>
re viewed</w>
Sy n
C .</w>
A ma
ast ery</w>
ab uses</w>
Nat ural</w>
B ir
par ti
O cean</w>
s burg</w>
li quid</w>
design ated</w>
Su ites</w>
ex pe
youn ger</w>
kilom eters</w>
stand ardis
Musli ms</w>
subscri ption</w>
17 th</w>
glob ally</w>
s ay
sh am
sacri f
plac ement</w>
l en</w>
Ar ts</w>
wash ing</w>
uti lity</w>
re production</w>
on er</w>
hy dra
S C
subjec ted</w>
d ural</w>
crit erion</w>
poin ting</w>
ch i</w>
Ac c
hec tares</w>
ad mission</w>
Con ver
te -01</w>
ne o</w>
integr ating</w>
gr ass</w>
Mon ten
sho es</w>
awa it</w>
en opho
inter ference</w>
gam ing</w>
work er</w>
v ina</w>
sn t
mac ro
crimin als</w>
valid ity</w>
scen es</w>
moun ted</w>
fin ishing</w>
Produc ts</w>
Dis trict</w>
15 th</w>
reach es</w>
inspi ration</w>
al g
vi br
vo ices</w>
some where</w>
reci proc
Y oun
S port</w>
work force</w>
m ers</w>
re ts</w>
resum ed</w>
ex t
Stat ute</w>
4 th</w>
deli vering</w>
plu gin</w>
o k</w>
N ature</w>
D S</w>
Cri minal</w>
Libr ary</w>
Jo h
rig orous</w>
ak er</w>
C ris
j i</w>
il ian</w>
at i</w>
don ors</w>
envis aged</w>
spec ul
o cean</w>
R esp
Gall ery</w>
in directly</w>
8 3</w>
y -01</w>
g ab
dre ams</w>
ath le
Pla y
Inst all
hi bit</w>
repres sion</w>
l es
B A</w>
authen tic
tem plate</w>
the ast</w>
re stra
en ess</w>
electr onics</w>
apor e</w>
Resid ence</w>
ro of
li ances</w>
tremend ous</w>
st ating</w>
exam ining</w>
argu ed</w>
So l</w>
Pers on
calcul ation</w>
Egy p
ed a</w>
sol v
absta ined</w>
restric tive</w>
proce dural</w>
T ower</w>
t s
resol ving</w>
ex trac
end less</w>
Sing apore</w>
IG C</w>
D ani
tho lic</w>
re me
Vic tor
M all
Co he
fab ric</w>
all er
pre dec
Ti bet
T op</w>
Adri atic</w>
threat ening</w>
p an</w>
me ter</w>
dis astr
deep er</w>
Q U
Fin ance</w>
r hy
m ill
g ery</w>
Coun try</w>
8 4</w>
apos; m</w>
Piaz za</w>
I M</w>
Al lah</w>
marri age</w>
ar ises</w>
zi g</w>
x y</w>
d ust</w>
L es</w>
stat ute</w>
inst ability</w>
htm l</w>
hon est
civ ilians</w>
Solid arity</w>
I mag
plat z</w>
clim bing</w>
adv ances</w>
prof itable</w>
lin king</w>
glo be</w>
ambi ence</w>
accum ul
B ad
ten sions</w>
supple ment</w>
g on
K un
pat ri
entreprene ur
e ating</w>
Pe titions</w>
Ex hibi
Cor porate</w>
commun ist</w>
Ph il
Al ter
ves sel</w>
collec tions</w>
Roman ian</w>
ti fication</w>
metho do
be hold</w>
vi era</w>
o que</w>
igh t
War craft</w>
vine yards</w>
graph ical</w>
cons ist</w>
exclu de</w>
discre tion</w>
adver se</w>
w aves</w>
semin ar</w>
amp ion</w>
N G</w>
For tun
tran qu
ret ari
ra phs</w>
polit an</w>
congratul ating</w>
J our
ri an</w>
libr aries</w>
C ot
prev ents</w>
mus icians</w>
M ass
He ad</w>
Bet ween</w>
sensi tivity</w>
exc use</w>
be at</w>
a wards</w>
autonom ous</w>
G ir
ph a</w>
do gs</w>
decre ase</w>
hear ts</w>
in os</w>
K now
st on</w>
entreprene urs</w>
carri es</w>
N ero</w>
scru tiny</w>
process or</w>
pil lars</w>
duc tion</w>
determin ing</w>
comfor ts</w>
refuge e</w>
monopo ly</w>
car go</w>
D y
Cas a</w>
w oods</w>
ra vel</w>
de pos
Un like</w>
fil ters</w>
main tains</w>
agg age</w>
pe ts</w>
inter faces</w>
T est</w>
cus sions</w>
ch t</w>
Langu age</w>
hel icop
Lat via</w>
unanim ity</w>
dist ant</w>
defic i
ag eing</w>
Her itage</w>
Ro s
C anc
inno cent</w>
C old</w>
á n</w>
P ack</w>
fru its</w>
en comp
Ric hard</w>
Monten egr
feat ured</w>
Newsp apers</w>
f in</w>
confi gu
Gal ile
U L
B S</w>
pul l</w>
num er
vi ation</w>
su ms</w>
re sts</w>
Tra vel
Ma ur
H un
ta g</w>
safeguar ding</w>
W er
.. ..
tic a</w>
B ay
distribu tors</w>
de tection</w>
is co</w>
tra il</w>
prin ts</w>
O L
Hel sin
in ti
ho sting</w>
b loo
í n</w>
Ar men
Helsin ki</w>
Gre en
Bri dge</w>
el ite</w>
Wr itten</w>
C ra
te ach</w>
ß e</w>
men ade</w>
com promises</w>
al ian</w>
ha i</w>
attemp ted</w>
adjust ments</w>
C P
thir ty</w>
techn ically</w>
sk ill</w>
sinc ere</w>
G PS</w>
eri e</w>
en to</w>
Dou ble</w>
ex ci
w ra
tic o</w>
Ch anc
incorrec t</w>
in n</w>
end ary</w>
l ich</w>
uni verse</w>
B lo
ra d</w>
qui ries</w>
pal ace</w>
carri ers</w>
n en</w>
di ve</w>
Nig eria</w>
w ishing</w>
hy gi
el ing</w>
ta b</w>
lin ess</w>
ann ers</w>
oc op
invi tes</w>
Cul tural</w>
Wi reless</w>
her self</w>
democ racies</w>
N ep
ter ly</w>
sh ock</w>
disastr ous</w>
Lou is</w>
Adminis tration</w>
sight seeing</w>
loc ally</w>
ful ness</w>
Dis abled</w>
mar gin</w>
ga ther</w>
analy se</w>
The at
S imply</w>
reve al</w>
pol is</w>
attemp ting</w>
thin ks</w>
EC H
re l</w>
chan ces</w>
LA N</w>
r é
vill as</w>
vacu um</w>
inter rup
fin anci
cri tique</w>
ch er
att ach</w>
to oth</w>
ab e
Co ast</w>
w ire</w>
ti tles</w>
ff e
vis as</w>
it ter</w>
h l</w>
om a</w>
in comes</w>
camp ing</w>
prin ter</w>
B ed</w>
Ar my</w>
there of</w>
read er</w>
sp ell</w>
est ing</w>
A .
pres ervation</w>
M uch</w>
proportion ate</w>
bel t</w>
Part ner</w>
uc k
i k</w>
bre eding</w>
al pine</w>
on e
st roll</w>
ve ter
ref usal</w>
assess ed</w>
Chanc ell
un s</w>
consul tations</w>
an ism</w>
Priv acy</w>
person ality</w>
ver sa
sil ent</w>
qu ery</w>
ay a</w>
Phot o
Ch ile</w>
Be ing</w>
work place</w>
Un less</w>
D re
fel ong</w>
с т
form ally</w>
absur d</w>
symb ols</w>
compla int</w>
au er</w>
deli vers</w>
b and
pro tests</w>
arri ving</w>
fas c
u ps</w>
ton ight</w>
elec tro
V .</w>
Reg is
N et</w>
pel ine</w>
et a</w>
consolid ated</w>
se aside</w>
episo de</w>
selec ting</w>
laim ed</w>
endeav our</w>
re actions</w>
gr ound
convinc ing</w>
Wh ilst</w>
H and
war m
ul ous</w>
Cl ass</w>
Ch ild</w>
off set</w>
in sight</w>
hor ses</w>
And alu
revolu tionary</w>
bu b
G es
gan g</w>
e z</w>
deleg ations</w>
de gra
Bas el</w>
ch ro
A y
interven tions</w>
ho sti
ce ase</w>
al i</w>
discipl inary</w>
K le
con test</w>
J ack
sympa thy</w>
stri kes</w>
tournam ent</w>
la ys</w>
l uck</w>
Sau di</w>
imm unity</w>
are ly</w>
per or</w>
G P</w>
fo ster</w>
K DE</w>
Bla ir</w>
rec ep
ne ys</w>
I ron
in he
Sci enti
tal ent</w>
hi er
endor sed</w>
Dres den</w>
sec uring</w>
gi ant</w>
parag raphs</w>
f en</w>
reason ably</w>
pre ference</w>
J ud
Lic ense</w>
E G</w>
lim itation</w>
di visions</w>
d ging</w>
Si em
R ev
L it
7 9</w>
sh ine</w>
ra rely</w>
aband on</w>
theore tical</w>
min eral</w>
l la</w>
es cal
ener gies</w>
leg endary</w>
inter f
eleg ance</w>
di min
tari ff</w>
mis sible</w>
ir respective</w>
Con go</w>
al ter</w>
sup porters</w>
pack ed</w>
ro t
contra st-01</w>
b ad
Cohe sion</w>
4 0
T RA
P un
ir regul
co ins</w>
t u</w>
hy per
high way</w>
corpor ations</w>
appe aring</w>
ap par
wor ried</w>
men us</w>
h il
de tention</w>
C ru
vig il
pun ishment</w>
pro ves</w>
explo ited</w>
G ay</w>
An ti</w>
k ia</w>
emb ry
protec tive</w>
oun ced</w>
demonstra tions</w>
cere mony</w>
advis ed</w>
P op
M S
Alg eria</w>
. net</w>
enh ancing</w>
Nik on</w>
trac king</w>
ran ges</w>
bo oth</w>
H U</w>
Explo rer</w>
C lose</w>
mix ture</w>
Ma x</w>
is er</w>
Galile o</w>
B ö
e in</w>
smo o
compli mentary</w>
R ac
M an</w>
sho oting</w>
ex qu
B is
ic ing</w>
guil ty</w>
Reg ul
qu alit
coun cil</w>
S ho
Mal ay
C ho
oun ding</w>
hal t</w>
fer ti
X ML</w>
Z i
I X</w>
s ound
percep tion</w>
earthqu ake</w>
de ployment</w>
obstac le</w>
el ine</w>
audio visual</w>
aggres sive</w>
G E</w>
fres h
ast ing</w>
Vill age</w>
To k
T el
modern isation</w>
distinc t</w>
unil ateral</w>
ec o</w>
w ished</w>
fo ssi
O li
sy ner
re affir
wed ding</w>
li p</w>
aim ing</w>
NA C</w>
wor th
pain ted</w>
orig ins</w>
Colom bia</w>
al and</w>
ou ter
m p</w>
immen se</w>
consoli date</w>
shar p
it ability</w>
Ini ti
th m</w>
overwhel ming</w>
cy cles</w>
gr a</w>
confir ms</w>
ann ually</w>
G A</w>
or ds</w>
ash es</w>
Siem ens</w>
In c</w>
mig rant</w>
Moun tain</w>
cham ber</w>
Si erra</w>
Ri viera</w>
tur n
refurb ished</w>
deci ding</w>
Rh ine</w>
Innov ation</w>
medic inal</w>
m us</w>
defe at</w>
cot ton</w>
Ca tholic</w>
s ors</w>
Youn g</w>
mat ches</w>
I l</w>
C A</w>
á n
vis u
pen ding</w>
excep tionally</w>
ad mitted</w>
pre jud
conserv ative</w>
modi fication</w>
clin ical</w>
as sign
prof ession</w>
dead lines</w>
cat tle</w>
Kir k</w>
Joh ann
E asy</w>
H z</w>
gra ms</w>
ac ies</w>
Wi kit
E din
respon ding</w>
ref rig
ful fil
any way</w>
pes tici
Bl ack
8 0
w a</w>
N either</w>
B run
sm en</w>
in su
accompan ying</w>
wan ting</w>
ge st
lim iting</w>
d ress</w>
uni fied</w>
b ak
at traction</w>
Edin burgh</w>
D am
3 50</w>
á s</w>
sa fer</w>
cla uses</w>
ru ption</w>
car te</w>
log s</w>
J ord
p raise</w>
U R</w>
Corpor ation</w>
Chancell or</w>
ar ming</w>
y able</w>
com mod
b s
N apo
new est</w>
k ings</w>
an ce
I cel
199 0s</w>
re tri
por tion</w>
t ling</w>
P AR
no ble</w>
lu ggage</w>
custom ized</w>
s enti
read ers</w>
k am
R ound</w>
Ne u
x enopho
Can a
wis dom</w>
ma ker</w>
bicy cle</w>
O LAF</w>
Well ness</w>
E specially</w>
Re form</w>
ru pt</w>
renew al</w>
oun ce</w>
dis abilities</w>
der iv
arch y</w>
W A
In tel
F I</w>
reme dy</w>
perce ived</w>
indic ations</w>
hi p</w>
br illi
a in
classi fication</w>
Po st</w>
cro ss
Vene zu
F al
A ri
ster ity</w>
promp t</w>
over night</w>
han g
ma x</w>
Dec ision</w>
te c</w>
identi fying</w>
o der</w>
mar vel
em ble</w>
S ul
Cap ital</w>
ine a</w>
c ali
Wikit ravel</w>
tic ism</w>
certific ates</w>
re ar</w>
ma d</w>
L ater</w>
ven tures</w>
witn essed</w>
veri fy</w>
o eu
ma thema
conclu des</w>
197 0</w>
p ac
la yers</w>
it z</w>
g ol
pro vo
c ache</w>
a. m</w>
Any one</w>
ä r
heal ing</w>
K in
F a
cred its</w>
col our
yi eld</w>
ste n</w>
commer ci
emo tional</w>
Montenegr o</w>
B ru
ti fied</w>
fi a</w>
Gu ar
trans ported</w>
Fire fox</w>
ou ldn</w>
L ook</w>
L ist</w>
in tui
defini tions</w>
moder ni
im bur
head ed</w>
el son</w>
X I</w>
Objec tive</w>
sta tic</w>
ra d
fore stry</w>
L CD</w>
invo ice</w>
Sam sung</w>
empha size</w>
dre w</w>
Tim es</w>
For ce</w>
tend ency</w>
Com b
9 th</w>
pen e
outer most</w>
m es
pus hed</w>
meaning ful</w>
sho ts</w>
tri als</w>
tex tiles</w>
V IS</w>
sam ples</w>
produc tions</w>
dis advant
democra tically</w>
G M
0. 00</w>
terr aces</w>
ri val</w>
en za</w>
c ils</w>
ter a</w>
stat u
St y
who le
decor ation</w>
ish ings</w>
ail s</w>
F OR
ta ke
st an</w>
d ingly</w>
Lei p
j et</w>
comprehen sible</w>
c rus
av a</w>
sh ell</w>
rati fy</w>
licens ed</w>
jeop ardis
Moun tains</w>
C af
co stly</w>
Bulg arian</w>
p ig
mac ro</w>
dra matically</w>
dio xide</w>
I R</w>
visi bility</w>
ide ology</w>
he u
an cies</w>
dec k</w>
A gain</w>
pi peline</w>
lo an</w>
d airy</w>
An nex</w>
ing ual</w>
ow ed</w>
enti ality</w>
p. m</w>
de i</w>
bu yer</w>
recogn ises</w>
inser t</w>
B 4</w>
str ate</w>
safe guards</w>
oper a</w>
introduc es</w>
distingu ish</w>
Sol ana</w>
S af
moun t</w>
t ina</w>
classi fied</w>
p g</w>
l us
go vina</w>
configu red</w>
broad casting</w>
Reser ve</w>
v est</w>
incid ents</w>
Wol f
li fts</w>
don or</w>
C Ds</w>
war rant</w>
pro te
hun ting</w>
hair dryer</w>
Mic hel</w>
r ice</w>
gener ating</w>
execu te</w>
uplo ad</w>
set tle</w>
ack er</w>
sen ds</w>
mo on</w>
gen oci
ab str
a er
Li ght</w>
Aga inst</w>
Ter race</w>
it z
en force</w>
advis ory</w>
-- --
ill er</w>
dis appear</w>
u gg
prerequ isite</w>
pa int</w>
g rid</w>
assess ing</w>
appoin ting</w>
stimul us</w>
for bi
cou ples</w>
S ac
re imbur
dra ws</w>
coun ting</w>
broad cast</w>
H il
tr il
say -01</w>
lif ting</w>
Val encia</w>
uc ks</w>
ow ski</w>
av en
TE R</w>
Sy m
K la
E P</w>
th ri
B ack
sur gery</w>
sc ra
liter ally</w>
Fil m</w>
he re
c er</w>
Ch ic
w are
se y</w>
Mall orca</w>
ser ial</w>
ke ep
Up on</w>
Her ze
Democ racy</w>
comple ting</w>
Ha iti</w>
Engine ering</w>
A us
pre text</w>
inc es</w>
bloc king</w>
a g</w>
S hu
sp reading</w>
defin ite</w>
ash ed</w>
K az
continu ity</w>
a o</w>
Dep ending</w>
key board</w>
me tro
ES S</w>
vari ables</w>
proble matic</w>
s lu
in tent</w>
form erly</w>
be side</w>
stud ying</w>
ill ness</w>
dep ic
In f
barri er</w>
D r</w>
impro ves</w>
ep ide
li am</w>
ful filling</w>
Rel ations</w>
Buil ding</w>
multin ational</w>
fol k</w>
e ine</w>
al titude</w>
V IP</w>
Fun c
Ar ti
ty ard</w>
Herze govina</w>
F ab
res emb
comple mentary</w>
and in
ver tical</w>
G ol
scha ft</w>
r um
an as</w>
L and</w>
psycho logical</w>
Pe ter
Ch er
ti ed</w>
pedestri an</w>
R SS</w>
B P</w>
pe ti
mort g
diplom acy</w>
au to</w>
OE CD</w>
A zer
A R</w>
s ity</w>
im balances</w>
accommo dations</w>
comfor tably</w>
p ted</w>
bur ning</w>
S L</w>
fea sible</w>
Fo ot
exac erb
T ari
No thing</w>
inst ant</w>
inspec tions</w>
smo ke</w>
Ash ton</w>
1 10</w>
org ans</w>
broad ly</w>
Ukra inian</w>
198 8</w>
lis ting</w>
food stuffs</w>
at on</w>
modi fications</w>
gall eries</w>
bass ador</w>
ac o</w>
C e
18 0</w>
docu mented</w>
construc t</w>
ci gare
Si e</w>
No bel</w>
str ö
rel uc
Excell ent</w>
ux e</w>
organ ising</w>
Leip zig</w>
t ch</w>
guit ar</w>
floo ds</w>
enjo yable</w>
encoura ges</w>
butt ons</w>
No kia</w>
E P
preser ving</w>
inv iting</w>
O ber
NO T</w>
leg acy</w>
F el
3. 5</w>
in appropriate</w>
conduc ting</w>
K er
D R
ra tion
pain ful</w>
ne arest</w>
develop er</w>
beauti fully</w>
k on
contain er</w>
adm ire</w>
P il
Free dom</w>
k id
is tence</w>
tempor arily</w>
protec ts</w>
T amp
ti ers</w>
di et</w>
Med ic
ligh t
ari os</w>
sing er</w>
le ys</w>
unde res
fer ry</w>
pric ing</w>
OS CE</w>
tox ic</w>
sor ts</w>
p as</w>
confid entiality</w>
Loo king</w>
pro stitu
f ed</w>
en co
access ed</w>
t am
sequ ence</w>
Wil liam</w>
stre aming</w>
pos it
b aggage</w>
correc tion</w>
con qu
z ia</w>
understand able</w>
strö m</w>
roun ded</w>
J on
whole hear
sion ally</w>
ore r</w>
or dering</w>
dec om
small est</w>
tu de</w>
pus hing</w>
Pro per
tun nel</w>
down loads</w>
Poli tical</w>
Cl as
Tic ket</w>
Al ong</w>
re tained</w>
ou ter</w>
Ex per
D .</w>
evalu ated</w>
vol umes</w>
trans national</w>
co operative</w>
co ach</w>
S K</w>
frag ile</w>
activis ts</w>
genoci de</w>
consci ence</w>
tra m</w>
H ague</w>
precau tionary</w>
Slov ak</w>
Exhibi tion</w>
Col um
sur faces</w>
bre a
Theat re</w>
O ri
p ap
fas test</w>
pp y</w>
ha te
Fis ch
ent ers</w>
enem ies</w>
organis ms</w>
org an</w>
ig er</w>
ba ths</w>
at titudes</w>
6 th</w>
stres ses</w>
initi ate</w>
fru stra
G ame</w>
Ar ticles</w>
tradi tionally</w>
pre sum
form ity</w>
ar chae
En d</w>
D ry</w>
Hus sein</w>
e ful</w>
ast on
NE W</w>
L ag
Environ mental</w>
Bu g
no is
V I</w>
comman ds</w>
mer chan
furn ishings</w>
v i</w>
Sum mer</w>
ca thedral</w>
bu gs</w>
Ac count</w>
persecu tion</w>
S ic
Rec ently</w>
Can ary</w>
confid ential</w>
L ong</w>
d an</w>
MO s</w>
Cam bo
sett lements</w>
periph eral</w>
at o
Star fleet</w>
Liber als</w>
quo ted</w>
privile ges</w>
erad ic
am i</w>
ome ter</w>
loc ked</w>
A U
os ity</w>
R evolution</w>
C el
vil le</w>
con i</w>
c any</w>
aci er</w>
W hate
sk ir
g our
dossi er</w>
valu ed</w>
top ical</w>
as onic</w>
ü h
mem ories</w>
Con ven
gr y</w>
exqu isite</w>
coordin ating</w>
th um
Whate ver</w>
A ge</w>
th west</w>
mo od</w>
in timate</w>
se ed</w>
jac ent</w>
defin es</w>
institu te</w>
illu min
Fo rest</w>
sle eping</w>
as sa
Pat ten</w>
v ou
E IB</w>
ru ins</w>
lan ding</w>
est a</w>
War saw</w>
tow els</w>
detec t</w>
att acked</w>
Air lines</w>
Por to</w>
vibr ant</w>
inv asion</w>
h at</w>
as us</w>
U sers</w>
econom ical</w>
S olutions</w>
emplo y</w>
D at
wor lds</w>
with drawn</w>
sol o</w>
est e</w>
festi vals</w>
respon ded</w>
ine qualities</w>
La undry</w>
st ag
regul ating</w>
d ans</w>
UR L</w>
N ow
Mar co</w>
protection ism</w>
met als</w>
chi p</w>
boo m</w>
Mar keting</w>
&apos; d</w>
pursu it</w>
hy bri
Con sid
weak ness</w>
vol ati
shor ter</w>
cre am</w>
comp iled</w>
Ca uc
z i</w>
st ering</w>
laun ching</w>
conc essions</w>
retari at</w>
re tail
l ending</w>
T ali
ti e</w>
prepar atory</w>
li k
im mer
aci o</w>
quali fication</w>
persu ade</w>
Ze aland</w>
Pal ma</w>
top s</w>
ga thering</w>
irregul arities</w>
Kur dish</w>
vig or
succ esses</w>
deliber ately</w>
conve y</w>
al tar</w>
y l</w>
do z
chan ge
German s</w>
she ep</w>
ni er</w>
bat teries</w>
Schul z</w>
ph e</w>
gam bling</w>
anticip ated</w>
L om
remin ded</w>
whol es
th ick
soci alist</w>
ed ly</w>
diagno sis</w>
au sterity</w>
pass port</w>
aff air</w>
macro economic</w>
k om
Ma de
popul arity</w>
mani fe
it ment</w>
en tum</w>
Addi tional</w>
mid st</w>
spec ulation</w>
qui l</w>
j um
gg s</w>
disadvant aged</w>
commod ity</w>
alleg ed</w>
relev ance</w>
posi tively</w>
Croati an</w>
1 30</w>
t ank</w>
st at</w>
e rec
statu tory</w>
ri x</w>
li felong</w>
re tention</w>
port able</w>
as c
s wee
har der</w>
es timate</w>
bru tal</w>
re tro
m ys
ici de</w>
fra mes</w>
elimin ating</w>
S av
th ou</w>
th ful</w>
ocop ying</w>
rou tine</w>
facilit ating</w>
du plic
direc tors</w>
exem ption</w>
experim ents</w>
Vo y
Re public
vis ing</w>
ung en</w>
liber ty</w>
iP od</w>
ban ana</w>
b in</w>
dies el</w>
contra diction</w>
weak nesses</w>
tor ial</w>
distinc tive</w>
deb ts</w>
coun ted</w>
Cy pri
Cle aning</w>
optim ized</w>
avi an</w>
Off ic
20 15</w>
vir uses</w>
tim ing</w>
alo gues</w>
co ating</w>
cab in</w>
H P</w>
G MOs</w>
W ant</w>
bu st
ape u
F ast</w>
f itting</w>
el ds</w>
Med ical</w>
su its</w>
St an
B ör
13 th</w>
ex otic</w>
en burg</w>
elim ination</w>
be y</w>
RE E</w>
AC H</w>
whol ly</w>
re si
ll ers</w>
U m
un k</w>
tack led</w>
rhe toric</w>
reper cussions</w>
neg lec
interrog ative</w>
dis appeared</w>
O x
j k</w>
acces sibility</w>
abo ard</w>
po orer</w>
marg in
AL DE</w>
trans form</w>
ave c</w>
S oc
sn acks</w>
reg ener
panor ama</w>
loc ks</w>
chec k
fore ver</w>
AL E</w>
A rena</w>
to ys</w>
detec ted</w>
Dolom ites</w>
7 th</w>
198 0s</w>
gra in</w>
Moun t</w>
L T</w>
over seas</w>
n icht</w>
bu l</w>
S and
scri pts</w>
gre y</w>
G T
Di vision</w>
pres sures</w>
char ging</w>
y n
tt a</w>
I de
6 0
objec tions</w>
moun tain
in stances</w>
e v</w>
D ru
vege table</w>
sp am</w>
sh ed</w>
e go</w>
clo s
cor respond</w>
I CA
pl ore</w>
Po st
us er
te au</w>
sli de</w>
coast line</w>
a ver
ko v
var ying</w>
avo id
S M
C all</w>
encoun tered</w>
dro pped</w>
po sting</w>
night life</w>
hop ing</w>
Sa x
vol tage</w>
s é</w>
ph y
ac id</w>
10 th</w>
shoul der</w>
heu gen</w>
pos session</w>
enshr ined</w>
com it
spec tive</w>
inj ury</w>
Tus cany</w>
propag anda</w>
Ver heugen</w>
Sa ve</w>
short age</w>
ev o</w>
S on
s light</w>
in um</w>
autom obile</w>
Tali ban</w>
B us</w>
bo ys</w>
ul ty</w>
th rown</w>
tail or</w>
Tamp ere</w>
Fu ture</w>
jud ici
E .
commen d</w>
Rail way</w>
ma ster
con gress</w>
M ir
ste re
sh ame</w>
nutri tion</w>
bo ld</w>
h et</w>
anc ement</w>
E ri
thre aten</w>
f ten</w>
emerg ence</w>
Ath ens</w>
zz o</w>
p av
en berg</w>
stre am
plo t</w>
Ste ph
z oom</w>
comp lied</w>
ma il
Qu ark</w>
imag ination</w>
es te
a rena</w>
Di am
sh ut</w>
om ing</w>
fic ally</w>
Fortun ately</w>
D I</w>
198 6</w>
parliam ent
cultiv ation</w>
Ste in
In di
o asis</w>
ag en</w>
Car d
bi o</w>
Up date</w>
vest ock</w>
measure ments</w>
accoun table</w>
S in
ind ul
capit alist</w>
S H
B ot
no te
b is</w>
ac ce
thir ds</w>
C in
cro p</w>
Sal es</w>
Lar ge</w>
out line</w>
char t</w>
architec t</w>
alg ori
acc us
Spi rit</w>
tur nover</w>
o se
lo gies</w>
kic ars</w>
collec ting</w>
ad jacent</w>
GU E</w>
pro tot
p en</w>
deplo yed</w>
cor rid
Wi kicars</w>
fav or</w>
bot tle</w>
um bre
Z u
ran ks</w>
plic ity</w>
IB M</w>
under ing</w>
neg ligence</w>
journ alist</w>
fossi l</w>
t lement</w>
ran dom</w>
dis advantage</w>
brilli ant</w>
defini tive</w>
V O
K ey
F ile</w>
our ing</w>
birth day</w>
at orium</w>
Franc isco</w>
bil lions</w>
Phot ocopying</w>
ro ad
res ist</w>
mil d</w>
experim ent</w>
An im
14 th</w>
th ick</w>
magaz ines</w>
cour te
aspi rations</w>
N eigh
Afgh an</w>
ev es</w>
Qu ite</w>
incur red</w>
NE T</w>
rec ur
mar ble</w>
deteri or
ac company</w>
T el</w>
mass ac
fore ig
L ounge</w>
Cana dian</w>
munici pal</w>
de ar</w>
clos est</w>
c s</w>
prag matic</w>
ann e</w>
T ech</w>
any more</w>
ve z</w>
manu ally</w>
m oul
K re
sel ler</w>
wa i
th read</w>
vi an</w>
reve als</w>
ot al</w>
bom b</w>
Technolo gies</w>
Sc andin
C ô
replac ing</w>
al t</w>
Cre dit</w>
ta sty</w>
k in</w>
writ ers</w>
us en</w>
Th ai</w>
T M</w>
S ab
op ia</w>
Fisch ler</w>
re fra
K ling
Cer tain
at om
Egyp tian</w>
seg ments</w>
re medi
al together</w>
19 45</w>
whe els</w>
R y
fran k
d un
Ver sion</w>
5 00
strong est</w>
formul ated</w>
cy lin
busin ess
abil itation</w>
Fl or
stan bul</w>
man oeu
anti que</w>
Si x
L IN
5 ,
ho sted</w>
atten ding</w>
ar ticul
accompl ished</w>
Res olution</w>
mo thers</w>
g aps</w>
Naz i</w>
t oms</w>
sm ugg
lic ences</w>
R ock</w>
198 7</w>
embar go</w>
be st
Re f</w>
sch e</w>
iz es</w>
install er</w>
ch al
re vol
gui ding</w>
even ings</w>
be ar
ge ared</w>
draf t
S till</w>
stret ch</w>
competi tions</w>
back up</w>
pri ori
establish ments</w>
ME P</w>
M ar</w>
don ation</w>
b ow
we al
un t</w>
min ded</w>
li vestock</w>
elimin ated</w>
B ren
tun a</w>
ther apeu
j a
injec tion</w>
Gu inea</w>
Certain ly</w>
tran quil</w>
tre ating</w>
deci des</w>
L ud
liqui dity</w>
j azz</w>
f lower</w>
qu eries</w>
mi tig
gi e</w>
se ve
Sk i</w>
Dri ve</w>
in ju
financi ally</w>
auc tion</w>
a ins</w>
Glob alisation</w>
recipi ent</w>
F ord</w>
educ ated</w>
cu t
a uch</w>
ung al
mom entum</w>
inten sity</w>
house holds</w>
e a</w>
F ar</w>
mil est
gr ace</w>
er re</w>
detri ment</w>
Mic hel
categ or
cap tured</w>
SD L</w>
infec tion</w>
hospit als</w>
bi kes</w>
J ac
F C</w>
purch ases</w>
municip ality</w>
hus band</w>
pro tein</w>
ap plau
G rou
ph ases</w>
ambigu ous</w>
H om
ung s
mono poli
G as
uni qu
ran king</w>
prev ail</w>
ba i</w>
am i
B ag
mod ular</w>
issu ing</w>
arm ament</w>
fores e
cour tyard</w>
Sar ko
Adv anced</w>
t anks</w>
scre ening</w>
fac tories</w>
Loc al</w>
tun e</w>
so oner</w>
refres hing</w>
n ate</w>
Me tro</w>
li est</w>
bio technology</w>
stric ter</w>
s log
compens ate</w>
signat ures</w>
organiz ing</w>
ne ts</w>
mini bar</w>
du ly</w>
M é
up dating</w>
the ater</w>
confron ted</w>
Th ough</w>
an no
ten der</w>
so red</w>
é es</w>
re ward</w>
d ying</w>
correspon ds</w>
Sarko zy</w>
deser t</w>
constitu ency</w>
ati vely</w>
V E</w>
Tim or</w>
al arming</w>
Sup er</w>
Ser bian</w>
Mon te</w>
Instru ments</w>
ph ony</w>
dis placed</w>
def ended</w>
restric tion</w>
jud g
in ch</w>
In cre
G ri
C 4</w>
reh abilitation</w>
p ity</w>
net working</w>
Ques tions</w>
E B
impres sed</w>
d enti
c up</w>
accom o
Uni versal</w>
S ak
em e
stain less</w>
l end</w>
fru it
buff er</w>
tra in
hygi ene</w>
establish es</w>
multi tude</w>
descri ptions</w>
g el
rol led</w>
om mer
he res</w>
San ter</w>
Dü ssel
roun ds</w>
refrig er
B ill</w>
vari eties</w>
sid y</w>
rec ord
t v</w>
sc op
Mon te
Av ail
vo id</w>
some how</w>
itu de</w>
i ka</w>
appropri ately</w>
S ri</w>
er up
dis c</w>
Pl ay</w>
Bu yer</w>
sion ers</w>
pu ty</w>
a ero
LE D</w>
9 001</w>
influ ences</w>
clari fied</w>
so far</w>
gent le</w>
ga u</w>
Icel and</w>
re alities</w>
critic isms</w>
Bör se</w>
tari ffs</w>
o va</w>
ex ag
celebra tion</w>
broad band</w>
L earning</w>
J acqu
Blu e
quanti tative</w>
pe d
ma ils</w>
198 5</w>
was n</w>
tr ace</w>
benefici aries</w>
eth ics</w>
cur y</w>
Budd h
ter rain</w>
six th</w>
dra g</w>
desig ning</w>
Fer n
1 ,000</w>
shi pment</w>
es sively</w>
consult ants</w>
bre ast</w>
Qu een</w>
ear nings</w>
spe eds</w>
r as</w>
pun ished</w>
S hang
uni vers
polic y
in et</w>
fab ulous</w>
cr ash</w>
Made ira</w>
S ource</w>
sp rings</w>
moun ting</w>
dens ity</w>
commission ed</w>
attrac ted</w>
Y esterday</w>
noti fy</w>
i ors</w>
app ed</w>
M eg
L earn</w>
v y</w>
fi er</w>
b low</w>
sol arium</w>
se am
promp tly</w>
deal er</w>
Ty pe</w>
we aring</w>
recre ation</w>
E thi
on able</w>
liber alization</w>
i i</w>
h alls</w>
deli veries</w>
bri dges</w>
P is
Hel p</w>
de struc
G M</w>
Bon n</w>
ñ a</w>
sur f</w>
J ar
Ch em
M eas
D r
proof ed</w>
den om
b arely</w>
D G</w>
stu dios</w>
architec ts</w>
H as</w>
Com petition</w>
vulner ability</w>
rem un
bou tique</w>
assum ption</w>
t z
demonstr ating</w>
democra tisation</w>
Produc tion</w>
I stanbul</w>
substitu te</w>
roc ks</w>
P S
Mon ti</w>
J an</w>
neigh bor
archi ves</w>
E le
su pr
k l
S cha
veri fied</w>
veri fication</w>
exclu ding</w>
en forced</w>
D un
Cô te</w>
han g</w>
g le
fl ora</w>
bur n</w>
C air
seve rely</w>
Tok yo</w>
C H</w>
cat alog</w>
I L</w>
En ter</w>
0 5
privile ge</w>
dist ances</w>
cha ins</w>
Li ke
3 60</w>
ter ia</w>
n ine
are l</w>
1 40</w>
R I</w>
ex u
devast ating</w>
c um
Sev ille</w>
human e</w>
forbi dden</w>
Cauc asus</w>
success or</w>
law yer</w>
voc al</w>
m ill</w>
critic ised</w>
agg reg
Malay sia</w>
scand al</w>
compe ting</w>
ann i</w>
Lev el</w>
w ron
ur able</w>
scre ens</w>
man kind</w>
preced ent</w>
postpon ed</w>
phenom ena</w>
k ar
jud ged</w>
j an</w>
aes thetic</w>
ran e</w>
conce ived</w>
bs p</w>
vari ations</w>
s in</w>
resid ent</w>
nation ality</w>
Rus sians</w>
stand ardi
f lood</w>
In tel</w>
. ch</w>
il legally</w>
abol ished</w>
a e</w>
Balk an</w>
е н
par a
St al
sci ences</w>
bur dens</w>
worth while</w>
mot to</w>
mis sion
e ggs</w>
discrimin atory</w>
ann a</w>
d ents</w>
M .</w>
ph p</w>
for tress</w>
destro ying</w>
predic table</w>
g n
de vote</w>
book ings</w>
ass y</w>
T am
bul k</w>
New s
tin i</w>
fe eding</w>
experim ental</w>
D as</w>
kit chen
V or
Bro k</w>
hel l</w>
cri tici
E qui
Bav aria</w>
sc rat
o log
o le</w>
ju st
W .</w>
Mar t
Initi ative</w>
us s</w>
fro zen</w>
Ho sp
Direc tors</w>
b ond</w>
K A</w>
scre en
incredi bly</w>
al ysis</w>
advoc ates</w>
susp ect</w>
V C</w>
cor ner
accur ately</w>
S ports</w>
tissu e</w>
exerc ises</w>
diam eter</w>
i us</w>
bas in</w>
at ories</w>
K at
A B
р а
s ons</w>
posi tioned</w>
motiv ation</w>
k u</w>
hon or</w>
. 000</w>
gener ates</w>
dimen sional</w>
br a</w>
att ach
K G</w>
y o
sens ors</w>
mat ching</w>
in hab
exp ects</w>
an ch
Sm ith</w>
ES T</w>
p ump</w>
colle ge</w>
to col
po e
T ele
pro ving</w>
il t</w>
Gi ft</w>
Ara bia</w>
forec asts</w>
draw ings</w>
I r
D eli
re z</w>
poss ess</w>
judici ary</w>
fail ures</w>
Shang hai</w>
Like wise</w>
Hit ler</w>
Arc tic</w>
occur ring</w>
May be</w>
C lo
stor m</w>
M ün
Go thic</w>
Düssel dorf</w>
Hol land</w>
v ague</w>
p ir
Par ticul
Liber ties</w>
Bel ow</w>
simpl er</w>
person alized</w>
de z</w>
Tibet an</w>
radio active</w>
ex ported</w>
T W
pestici des</w>
hor ri
life time</w>
have -03</w>
tren dy</w>
inc ap
gu y</w>
B li
re bel
like wise</w>
g ent</w>
emo tions</w>
R is
Kar l</w>
viol ated</w>
app alling</w>
Clin ton</w>
trans position</w>
n bsp</w>
harmon ise</w>
Wor d</w>
Fi ve</w>
ton gue</w>
ell i</w>
recre ational</w>
gra titude</w>
Tu be</w>
pul se</w>
lin en</w>
cha os</w>
woo d
sho res</w>
recommen ds</w>
pas sion
n av
ger man</w>
Resp on
Al most</w>
sub mitting</w>
correc ted</w>
any body</w>
Rena issance</w>
inju red</w>
fri dge</w>
W ord
su dden</w>
re fund</w>
awa iting</w>
Dar fur</w>
tt i</w>
subsidi aries</w>
photograph er</w>
exem pl
F ather</w>
stra ight
S ant</w>
In n
Cent ury</w>
te eth</w>
simul ation</w>
ec tive</w>
c it
bio fuels</w>
Pr ince</w>
K ra
rigi d</w>
re mark</w>
inhe rent</w>
I bi
in o
Nor d</w>
vege tation</w>
un ite</w>
id ity</w>
Tari fa</w>
P ER
B ack</w>
ur ged</w>
Venezu ela</w>
Commer ce</w>
Ban quet</w>
poli tic
gener ic</w>
ass or
al- quantity</w>
ad os</w>
Wor k
Pol ice</w>
tempor al-quantity</w>
deteri oration</w>
def ect</w>
de v</w>
Cha p
nation alism</w>
mis leading</w>
ca ve</w>
adap ting</w>
Al l
tis ing</w>
f inger</w>
Democ rat</w>
therapeu tic</w>
sub mission</w>
ax is</w>
Mil ose
seas onal</w>
pic ked</w>
licens ing</w>
P om
M ary</w>
E u
lic enses</w>
de x</w>
civil isation</w>
c en
F oc
CA D</w>
h as
P ed
la undry</w>
exce eded</w>
do or
as tically</w>
an xi
Wor ks</w>
Wat ch</w>
Dani el</w>
un certain</w>
mon astery</w>
addi tives</w>
enchan ting</w>
Scot tish</w>
tocol s</w>
promo tional</w>
mu tually</w>
Y ou
purch aser</w>
p y
es es</w>
dynam ics</w>
men ting</w>
mat er
concep tion</w>
bloc k
o li
Th ea
Air conditioning</w>
under stands</w>
la g</w>
emphas ises</w>
Milose vic</w>
Compu ter</w>
ste ep</w>
ec ommer
ac tu
wholehear tedly</w>
Gar da</w>
re b
pass age</w>
occa sionally</w>
conf used</w>
a f</w>
De ep</w>
ecommer ce</w>
ac ute</w>
indic ating</w>
fi replace</w>
en tails</w>
s ister</w>
gab e</w>
K as
d in</w>
termin ation</w>
sp heres</w>
encoura gement</w>
tim ber</w>
speci fication</w>
s can</w>
optimis tic</w>
doc tr
b res</w>
t to</w>
contrac ting</w>
comm em
HO TE
administr ator</w>
Jord an</w>
é r
s ich</w>
pre domin
eri an</w>
F REE</w>
B I
w et</w>
susta in</w>
ast er
back drop</w>
tho do
sup pos
law ful</w>
inter oper
fo oting</w>
expres ses</w>
ani um</w>
expec ting</w>
L ea
G ab
li kes</w>
exer t</w>
toler able</w>
p ers</w>
j pg</w>
Pa ul
K el
ir responsible</w>
ear liest</w>
E li
CO D</w>
sec toral</w>
YO U</w>
Pr ice</w>
tri gger</w>
i e
docu mentary</w>
S ter
mer it</w>
am m
T ob
O k
multi annual</w>
uc tu
or ange</w>
monopoli es</w>
m ile</w>
lin ear</w>
in complete</w>
C lau
sh u
our se</w>
F O
tem ple</w>
recru itment</w>
ne es</w>
ici a</w>
ation als</w>
ass ass
Vol k
v ation</w>
sec ular</w>
pow der</w>
conclu ding</w>
app ing</w>
Jacqu es</w>
0 6
ye a</w>
tu b</w>
sp ati
pro menade</w>
ma sters</w>
la va</w>
l un
dis appointment</w>
cha ir
Accor dingly</w>
versa tile</w>
see ds</w>
contam ination</w>
condem nation</w>
assum es</w>
valu ation</w>
c iliation</w>
Com pan
C C
t ments</w>
4 ,
S ound</w>
ven s</w>
chi ps</w>
Scienti fic</w>
j ury</w>
fab rics</w>
cri tics</w>
stri p</w>
sha pes</w>
pe red</w>
deal ers</w>
abor tion</w>
re alization</w>
popul ated</w>
long est</w>
l acks</w>
conf ront</w>
S anti
Israel is</w>
foreig ners</w>
Four thly</w>
D er</w>
u lic</w>
Ro om
b led</w>
Olymp us</w>
mat ched</w>
col or
at t</w>
D an
id ad</w>
g au
encry ption</w>
cock tail</w>
c and
Lo ve</w>
E n</w>
ot a</w>
l ou
w ins</w>
v ous</w>
un equi
pas sive</w>
Star ting</w>
Euro pa</w>
gen ic</w>
missi le</w>
intern ally</w>
distor tion</w>
reflec ting</w>
ref ront</w>
inf ected</w>
ech o</w>
anim ation</w>
al ous</w>
C oo
symp toms</w>
serv ants</w>
gour met</w>
dispar ities</w>
am ate
T U
AN Y</w>
v aries</w>
enc lo
ch ef</w>
bro ke</w>
Ta king</w>
M ob
EA N</w>
Ar ound</w>
up hold</w>
swi f
sent ences</w>
pers istent</w>
in struction</w>
sla ve</w>
econom ists</w>
capit a</w>
al tered</w>
Bar on
-0 5</w>
pati ence</w>
in ability</w>
G on
B .
3 00
f airs</w>
197 9</w>
fing er
Cur rency</w>
dis ability</w>
Mot or
er red</w>
cat aly
5 ,000</w>
pe aks</w>
mix ing</w>
har sh</w>
consci ousness</w>
ad here</w>
Ma h
Cub an</w>
s z
bun al</w>
si es</w>
optim ization</w>
in fin
ec ho
Now adays</w>
Fol low</w>
1. 2</w>
K am
particip ant</w>
en der</w>
colour ful</w>
an ian</w>
Lit tle</w>
t ants</w>
chap ters</w>
bi om
Su stain
Sil ver
Install ation</w>
C it
no s</w>
contain ers</w>
ch ester</w>
susp end</w>
re formed</w>
ge ome
fl our
chron ic</w>
Cust oms</w>
stead y</w>
j ump</w>
convers ation</w>
Per f
view er</w>
sha ping</w>
cop per</w>
B IL
3. 0</w>
ti mately</w>
C I
r -
in aug
de t</w>
d are</w>
Whe re
J acu
ous es</w>
astr onom
R on
Qu e
NG L</w>
L L
G ate</w>
dest abil
calcul ations</w>
Cop yright</w>
ro bots</w>
pric ed</w>
in coming</w>
perpe tr
atten tive</w>
W a
Tour ist</w>
politici an</w>
modi ties</w>
em ann</w>
av i</w>
am r-
Go als</w>
rest oring</w>
in effective</w>
i g</w>
administra tions</w>
tol l</w>
l oud</w>
e ability</w>
stimul ating</w>
Off icial</w>
ma tes</w>
inser ted</w>
dis counts</w>
G et
ten ds</w>
comit ology</w>
Bun des
Ac ti
t ful</w>
s at</w>
loc ating</w>
Rel ax</w>
Pal acio</w>
D av
Buil t</w>
fl uctu
fin es</w>
fav oured</w>
b its</w>
Par ag
disc oura
te fully</w>
re posit
G y
interpre t</w>
cep t</w>
Pur ch
H ill</w>
ther to</w>
ol i</w>
gl adly</w>
deli ghtful</w>
T ou
Ibi za</w>
Gu id
sal aries</w>
res olu
en do</w>
applic ants</w>
ti ful</w>
ren dered</w>
oppos ing</w>
li vel
con fined</w>
amr- unknown</w>
aliz es</w>
access ing</w>
mag ical</w>
id yl
ti ques</w>
H ow
v ent</w>
o ven</w>
en n
cou ldn</w>
az zo</w>
Braz ilian</w>
record ings</w>
O M
vi ate</w>
un clear</w>
off ences</w>
ap point</w>
Pan asonic</w>
Na ples</w>
Jo sé</w>
t as</w>
re productive</w>
ful fill</w>
co in</w>
min ors</w>
imag in
ex tract</w>
brow n</w>
Con nec
Ap plication</w>
val leys</w>
p one</w>
her o
Clas sic</w>
xenopho bia</w>
se ating</w>
sacrif ice</w>
play ground</w>
e e
Avail able</w>
pro visi
st up
sour cing</w>
los s
intermedi ate</w>
H op
st ore
Bu en
depri ved</w>
fores een</w>
ass isted</w>
ko v</w>
Pr in
l ush</w>
i ti
exag ger
connec ts</w>
at tered</w>
abol ish</w>
T ow
K ö
IT Y</w>
C ry
transl ators</w>
re ty</w>
propri etary</w>
explan atory</w>
K om
appro aching</w>
th irdly</w>
s ick</w>
mur dered</w>
cra ft
w n</w>
some body</w>
requ esting</w>
lob b
friend ship</w>
fle ets</w>
Mar k
Har bour</w>
co smo
R un
lish ed</w>
an onymous</w>
Su preme</w>
Direc t</w>
D ays</w>
Cham pionship</w>
leng thy</w>
bin ary</w>
Stu dies</w>
virtu e</w>
mor atorium</w>
O P
Baron ess</w>
An aly
man ages</w>
feder ation</w>
ci o</w>
Prov ence</w>
o ils</w>
ic on
don ations</w>
depos its</w>
Lo g
v enti
p iz
T ry</w>
Gu ant
8 th</w>
scen arios</w>
rid icul
gi fts</w>
evi d
ti red</w>
l ateral</w>
K ey</w>
king dom</w>
it iner
S us
su icide</w>
fi ted</w>
ô tel</w>
re sume</w>
lap top</w>
fl ag
al ert</w>
CF SP</w>
tr uck</w>
refu ge</w>
fl ags</w>
Su pp
Anton io</w>
enthusi astic</w>
V arious</w>
undermin ing</w>
12 th</w>
pri zes</w>
mem bered</w>
exempl ary</w>
draft sman</w>
Throu ghout</w>
y acht</w>
Pi e
D id</w>
198 4</w>
Bas que</w>
t ones</w>
ic ons</w>
dis rup
deli ght</w>
bl end</w>
AP I</w>
posi tioning</w>
ne o
interf ere</w>
fem in
did as</w>
Th ys
N T
swi ft</w>
sta irs</w>
fac to</w>
contradic tory</w>
on wards</w>
methodo logy</w>
forec ast</w>
sub sidy</w>
por no
gr as
claim ing</w>
Santi ago</w>
Chris top
р о
renov ation</w>
profession alism</w>
b ella</w>
C M
p is
ed it
tri ple</w>
smoo thly</w>
nor ms</w>
bo w</w>
b or</w>
investig ated</w>
fa thers</w>
Di ffe
re mit</w>
do g
Pri x</w>
ver ages</w>
th ms</w>
i. e</w>
G BP</w>
zi o</w>
frank ly</w>
all a</w>
ac ity</w>
qualit ative</w>
o k
o dy</w>
dec or</w>
C la
lear nt</w>
j er
le tting</w>
intui tive</w>
bal ancing</w>
y ou
Sk y</w>
Re view</w>
G old
tiz ed</w>
pen insula</w>
exhib itors</w>
ass ing</w>
ten ess</w>
mer its</w>
interrup ted</w>
fashi onable</w>
enthusi asts</w>
child hood</w>
ta p</w>
pa tional</w>
itte dly</w>
fa una</w>
cau tion</w>
Ap plic
. The</w>
den a</w>
colum ns</w>
straight forward</w>
scen ic</w>
predec essor</w>
Wh enever</w>
str asse</w>
me tre</w>
L AN
optim ize</w>
oblig atory</w>
men tioning</w>
de regulation</w>
Ne ar</w>
J .</w>
weak er</w>
et z
dem o</w>
assum ing</w>
Iron ing</w>
Au dio</w>
s lot</w>
trac es</w>
ju ice</w>
a z</w>
dis appointing</w>
con sole</w>
y ours</w>
d ad</w>
Neigh bour
suppos edly</w>
Cambo dia</w>
bre ath</w>
at us</w>
V ER
Jack son</w>
voc ation</w>
ro yal</w>
S ti
PR O</w>
L ay
em en</w>
depend ency</w>
cul ar</w>
U pper</w>
S ir</w>
prejud ice</w>
it oring</w>
C ann
prostitu tion</w>
at ro
F ul
Alter na
threat ens</w>
redund ant</w>
indic ator</w>
g ins</w>
ess ors</w>
e der</w>
compos er</w>
circ les</w>
Par ticip
ti um</w>
roo ted</w>
g ate
Win ter</w>
weak en</w>
luc ky</w>
just ment</w>
f it
il ings</w>
Fu er
p d
o we</w>
e o</w>
Voy ager</w>
Sloven ian</w>
Im peri
AL L</w>
ü ller</w>
diff ering</w>
ber ger</w>
aris en</w>
14 9</w>
rent als</w>
d ner</w>
T at
N ot
E in
Ap ache</w>
sup plying</w>
ann ex
TE C</w>
10 ,000</w>
pum ps</w>
na sty</w>
comp rising</w>
ch ant</w>
RE ACH</w>
stipul ated</w>
fif ty</w>
emp ire</w>
de duc
me ad
Pro c
P ad
t ted</w>
swi m</w>
ra ge</w>
o b</w>
R eli
ca p</w>
se al</w>
pa st
hydra ulic</w>
desi res</w>
com modities</w>
To ols</w>
sn ack</w>
sk y
cell ar</w>
c ements</w>
Collec tion</w>
tou gh
highligh ting</w>
g ly</w>
at om</w>
Ver ts</w>
Lan zar
IC E</w>
4 50</w>
wil d
in security</w>
co operating</w>
al ig
Li do</w>
2 2
hor ny</w>
cou pled</w>
condi tion
cosme tic</w>
as e
T NG</w>
Mon tre
ref using</w>
monu ment</w>
employ er</w>
Pol y
Alban ian</w>
wor n</w>
or ly</w>
Or chestra</w>
col oured</w>
thum b</w>
n is
inno ck</w>
happ iness</w>
engine er</w>
tas tes</w>
re membered</w>
gu est
al le</w>
Jacu zzi</w>
G 20</w>
ra tive</w>
cop y
S z
K innock</w>
sho e</w>
cou p</w>
R I
swif tly</w>
recogn ising</w>
om ed</w>
h att
in compatible</w>
idyl lic</w>
V eg
Euro s</w>
public ity</w>
off ensive</w>
ear marked</w>
Pr ices</w>
H S</w>
k u
influ ential</w>
a si
S ER
Mach ine</w>
pup ils</w>
elec torate</w>
contin ents</w>
S po
Par ad
, 00</w>
susp ected</w>
rejec ting</w>
di z</w>
transfer ring</w>
simpli fying</w>
pp ers</w>
exerc ised</w>
An na</w>
be i</w>
Premi um</w>
Hu man
sal ary</w>
he reby</w>
harmon ious</w>
determin es</w>
ber ry</w>
W ater
Lim ited</w>
ik i</w>
corru pt</w>
author itarian</w>
P et
N ight</w>
E M</w>
un expected</w>
pro tocols</w>
gu t</w>
bi king</w>
Phili pp
Mo vi
mon ies</w>
fir m
D NA</w>
Cal a</w>
us able</w>
quali fy</w>
abstr act</w>
syn thetic</w>
petro l</w>
memor able</w>
enti rety</w>
celebra tions</w>
az i
F at
invest or</w>
wri tes</w>
re alisation</w>
eri ous</w>
Ste el</w>
plas tics</w>
multin ationals</w>
bro thers</w>
Euro stat</w>
B es
Al ber
tho tel</w>
ma ke
ho ly</w>
h oods</w>
awa its</w>
Sto ck</w>
I F</w>
expres sions</w>
eng lish</w>
wer den</w>
tot al
G O</w>
197 8</w>
к о
ve to</w>
undermin ed</w>
Regi ons</w>
RA M</w>
Ap pro
197 0s</w>
no t
h ath</w>
appe aling</w>
in sofar</w>
d d
V s</w>
P A
H D
p acking</w>
or ph
no table</w>
is ations</w>
en ko</w>
consult ancy</w>
ban anas</w>
S chi
19 60</w>
tr ucks</w>
Os lo</w>
spo kes
off er
Mex ican</w>
In dividu
B U
j unior</w>
h l
fair ness</w>
co s</w>
R ES
Mon itoring</w>
Andre as</w>
Al ready</w>
5. 00</w>
prevail ing</w>
lif ted</w>
ce ilings</w>
Room s.com</w>
destruc tive</w>
S F</w>
Late Rooms.com</w>
196 7</w>
AT A</w>
u ous</w>
r al</w>
manipul ation</w>
acceler ate</w>
plur alism</w>
Wal es</w>
V ar
nom inated</w>
li p
in ate</w>
begin ners</w>
T om</w>
multil ingual</w>
man ship</w>
lu min
rec ourse</w>
pic ion</w>
p hic</w>
dom ains</w>
as i</w>
SS L</w>
Cub ase</w>
k n
M B
tab ling</w>
l ous</w>
cre atures</w>
Mag ic</w>
rac ist</w>
p am
er als</w>
dra ma</w>
ban ning</w>
agre eing</w>
C D
parliament arians</w>
am a
Comm unities</w>
surve ys</w>
e in
Tra di
IL O</w>
s adly</w>
rela tives</w>
he im
c z
ate ll
J i
ra ys</w>
o gene
marke t
informa tions</w>
grow s</w>
critic ise</w>
Mu gabe</w>
Lanzar ote</w>
hom os
ab sent</w>
Neighbour hood</w>
He in
forese eable</w>
fil ed</w>
attribu ted</w>
His tor
sh ire</w>
sent enced</w>
read ily</w>
m ously</w>
la di
exc av
carri age</w>
D IN</w>
rec ital</w>
priva tisation</w>
hat red</w>
bank rup
C ou
B eg
invent ory</w>
forma tions</w>
prosper ous</w>
pi pe</w>
k ill
ak h
S ound
D a
B row
harmon ization</w>
el even</w>
at able</w>
Pic ard</w>
Fer r
min s</w>
iz er</w>
d -
Victor ia</w>
N one</w>
Cap e</w>
Ad justment</w>
hon ey</w>
del l</w>
archae ological</w>
Ju an</w>
trac eability</w>
ris en</w>
k a
co zy</w>
tra ders</w>
sus picion</w>
plan ted</w>
nec k</w>
hi therto</w>
W E
scap e</w>
Sta y</w>
i er
dir ty</w>
cast les</w>
fron tier</w>
form ers</w>
attribu tes</w>
N uclear</w>
forman ce</w>
anti bio
A venue</w>
A ires</w>
sur ance</w>
ater ally</w>
Consul ting</w>
3 000</w>
sta ti
sp ire</w>
re unification</w>
lo gos</w>
l oun
B uc
pl ant
broch ure</w>
S uc
Al pha</w>
fruit ful</w>
clim b</w>
Spe ed</w>
Austr alian</w>
te m</w>
substan tive</w>
sc al
ce des</w>
br ic
under way</w>
institu tes</w>
gover n</w>
doz ens</w>
F S</w>
upgra ded</w>
streng ths</w>
ins isted</w>
Cha ir</w>
11 th</w>
il ers</w>
P ool</w>
tow ers</w>
out look</w>
men tions</w>
h oo
deliber ate</w>
comb inations</w>
collec tively</w>
Proper ty</w>
Buen os</w>
war ned</w>
p p</w>
oc curren
for table</w>
Pi erre</w>
Per u</w>
E ure
Ba sic</w>
Ab u</w>
res ses</w>
cur ious</w>
cop ied</w>
ch ampion</w>
br ac
st amp</w>
im pa
zi one</w>
pat ented</w>
op ping</w>
kitchen ette</w>
distor tions</w>
coura geous</w>
be verages</w>
197 5</w>
with standing</w>
wat ch
tem plates</w>
sing ing</w>
po orly</w>
bre aches</w>
S MS</w>
C AR
swit ching</w>
show ers</w>
fon t</w>
em ails</w>
B ow
u le</w>
sh oot</w>
pi ons</w>
gh ty</w>
S IS</w>
Ken ya</w>
E i
Bro ad
war n</w>
Ma in
F as
real m</w>
re forming</w>
judg ments</w>
inspec tors</w>
incorpor ating</w>
for ce
exc essively</w>
multi p
mer cury</w>
expla ining</w>
a b</w>
tournam ents</w>
neighb our</w>
be ts</w>
IC E
si e
bas s</w>
R im
CN S</w>
te en
tas tefully</w>
enjo yment</w>
Archi tec
in duc
win ds</w>
un changed</w>
sp her
i as</w>
e ted</w>
comple teness</w>
ú n</w>
post pone</w>
mort ality</w>
liter ary</w>
ent a</w>
cl oning</w>
ach er</w>
T AC
toler ate</w>
slo pe</w>
advoc ated</w>
Su rely</w>
K m</w>
H ear
ing ham</w>
Compan ies</w>
prof essions</w>
ecu li
break through</w>
Con ciliation</w>
re treat</w>
me tal
cock tails</w>
Premi er</w>
F L
Concer ning</w>
s port
ob s
loo se</w>
emis try</w>
ag ne</w>
acqu ain
Coun tries</w>
sid ed</w>
sco res</w>
refra in</w>
reconc ile</w>
pix els</w>
imprison ed</w>
g ates</w>
fic tion</w>
S is
inform ing</w>
catastro phe</w>
FA Q</w>
re fin
h its</w>
dedic ation</w>
supr an
seas ons</w>
regul ators</w>
inte gra
exce eds</w>
evalu ating</w>
AK VIS</w>
н о
pre mature</w>
ol ing</w>
pro active</w>
mat h</w>
Tus can</w>
La e
E s</w>
US E</w>
tt ably</w>
s au
Doc tor</w>
Custom ers</w>
19 6</w>
question able</w>
Fron tex</w>
V inc
prof essor</w>
pe dia</w>
gu ys</w>
fran ch
encry pted</w>
crow d</w>
Man aging</w>
succ essive</w>
pris ons</w>
lam ps</w>
hu b</w>
fel d</w>
di al
detri mental</w>
co at</w>
bene fited</w>
beli efs</w>
ten ant</w>
s ind</w>
dis covering</w>
b ot</w>
religi ons</w>
en vel
br ush</w>
Cair o</w>
rat ings</w>
phys ics</w>
od ds</w>
der i
ar ch</w>
D ate</w>
6 8
sac red</w>
cris y</w>
K im</w>
ur anium</w>
histor ically</w>
Beau ty</w>
AS EAN</w>
p eculi
d .</w>
ch ick
Mer cedes</w>
tur ally</w>
stop ping</w>
pl un
T ab
communic ated</w>
St ore</w>
Mo d
L un
volunte ers</w>
nois y</w>
in ning</w>
Sk y
x x</w>
subsi dis
so s</w>
prosecu tion</w>
p it</w>
T ool</w>
J P
G 8</w>
ph i</w>
INT ER
caf é</w>
assemb led</w>
ac ious</w>
apos; d</w>
C av
under lined</w>
constitu ents</w>
Pro tec
Maj or</w>
them atic</w>
po le</w>
op 4</w>
objec tion</w>
neglec ted</w>
mar t
enti eth</w>
L ul
Bav arian</w>
shi pped</w>
illu strate</w>
d ancing</w>
bo y
Tem ple</w>
Jour nal</w>
EG F</w>
ti k</w>
sa il</w>
organis ational</w>
lin er</w>
ho c</w>
co st
benefici ary</w>
Al gar
gra pes</w>
trans mit</w>
ec k
ass ment</w>
Par king</w>
N ame</w>
Leon ardo</w>
Fre edoms</w>
Cour se</w>
Chap ter</w>
Angel es</w>
19 50</w>
part -of</w>
o x</w>
loy alty</w>
fra me
calcul ate</w>
at oes</w>
alis es</w>
ac t
W ine</w>
Sel f</w>
Sci ences</w>
Bad en</w>
us h
less er</w>
la undering</w>
cor ners</w>
tri g
exten sions</w>
consum ing</w>
bankrup t
T op
ro ck
mass ages</w>
marg ins</w>
interoper ability</w>
Pho to</w>
P ir
Ke ep</w>
pre view</w>
i ously</w>
cook ie</w>
Mari time</w>
Kling on</w>
B E</w>
no where</w>
heav en</w>
hatt an</w>
coun ty</w>
cop ying</w>
cau tious</w>
ash ing</w>
Gen der</w>
Alterna tively</w>
197 6</w>
occu pational</w>
apo log
af ore
re vit
per forms</w>
i z</w>
fron tiers</w>
ex porting</w>
decis i
Pr inci
travel ers</w>
slau ghter</w>
em e</w>
z on</w>
weal thy</w>
fo refront</w>
0. 000</w>
re plic
ot o
c am</w>
Prov ince</w>
ro v
qu i</w>
poc ket</w>
i to</w>
el ect</w>
dis armament</w>
de pression</w>
be have</w>
sem ination</w>
e i</w>
dr astic</w>
CO M
warm th</w>
rein forcing</w>
mon d</w>
l on</w>
enta il</w>
corpor ation</w>
ON S</w>
Leg is
princi p
bed ding</w>
role an</w>
ou stic</w>
dar k
Em peror</w>
le y
hybri d</w>
el f</w>
cl uster</w>
we l</w>
minis terial</w>
l j
V ul
t tle</w>
strength ens</w>
inter views</w>
gradu ate</w>
associ ate</w>
Ter r
B ed
198 2</w>
sun shine</w>
stead ily</w>
na u
Chan nel</w>
cy c
weak ened</w>
ti f</w>
iz ations</w>
O thers</w>
stabil isation</w>
radic ally</w>
caf es</w>
Gran ada</w>
C IA</w>
w ich</w>
thr ust</w>
em bo
wel ding</w>
pro long
jud gement</w>
hypo crisy</w>
ex traction</w>
balcon ies</w>
Fran k</w>
Direc torate</w>
ç a</w>
s add
distur bing</w>
Fr att
deriv atives</w>
O ften</w>
tri um
pub s</w>
nu t</w>
le z</w>
imm une</w>
cer amic</w>
acc esses</w>
K ol
B ER
tou ches</w>
rec k
diversi fication</w>
V IE
T ER
Bli zz
B au
24 th</w>
rou gh</w>
mys q
bom bs</w>
N S</w>
mobil isation</w>
hol dings</w>
gl ance</w>
E ther
seri ousness</w>
recei ver</w>
mill ennium</w>
bu yers</w>
travel ing</w>
ail ing</w>
ab ide</w>
Man hattan</w>
week ends</w>
pen sioners</w>
pal m</w>
os is</w>
k ir
en ligh
disman tling</w>
S end</w>
Ex cel</w>
Eure x</w>
sugge sting</w>
b li
T reas
remun eration</w>
pil gri
out break</w>
off ence</w>
exha ust</w>
celebr ating</w>
ra in
con formity</w>
M agaz
K h
ox y
eng aging</w>
cle ar
b all
at ri
P ope</w>
Ben j
A wards</w>
sens es</w>
ch y</w>
stra ße</w>
re build</w>
predic t</w>
loc als</w>
C lar
inven ted</w>
b ron
ad or
L um
DS 9</w>
tun g</w>
le verage</w>
explo sion</w>
exerc ising</w>
by l</w>
Chic ago</w>
qu o</w>
L ang
Ac tive</w>
ci ón</w>
s que</w>
dur able</w>
derog ation</w>
anticip ate</w>
ab eth</w>
I .
D O</w>
A id</w>
196 0s</w>
termin als</w>
ste ering</w>
re y</w>
m ask</w>
infring ements</w>
R ü
hab its</w>
trig gered</w>
o a</w>
de t
volcan ic</w>
remin ds</w>
pre m
incap able</w>
bet ting</w>
Im port
es thouse</w>
enti als</w>
e on</w>
ce ly</w>
Vene tian</w>
Re ader</w>
Fer re
0. 5</w>
vi vi
un satisfactory</w>
lec tures</w>
inj uries</w>
ch et</w>
TE S</w>
Person ally</w>
viol ate</w>
ly wood</w>
g lu
employ s</w>
dis orders</w>
correc tness</w>
Maj orca</w>
F ire</w>
196 8</w>
ve get
bet a</w>
advis able</w>
leg s</w>
in vention</w>
gal ax
g ay</w>
ed ges</w>
com plain</w>
cl ou
al locate</w>
afore mentioned</w>
S her
D ur
ti ge</w>
pre condition</w>
ell schaft</w>
V an
marvel lous</w>
govern -01</w>
com o</w>
co a</w>
appro ving</w>
F F</w>
C s</w>
C ash</w>
Be yond</w>
3 6
spon sored</w>
optimis m</w>
milest one</w>
en te
Per spective</w>
Lu k
Eco fin</w>
ass ist
as sign</w>
Gu ate
EU RO
.. ...</w>
vent h</w>
us a</w>
j ung
C L
Algar ve</w>
ra m</w>
den i
Ber lus
x ious</w>
sim plicity</w>
publish er</w>
n ucle
e de</w>
e ag
Yugosla v</w>
over look</w>
inclu de
dis advantages</w>
contam inated</w>
confron tation</w>
a ids</w>
E aster</w>
Berlus coni</w>
prec arious</w>
main land</w>
kin dly</w>
ba ij
Benj amin</w>
sharp ly</w>
re vise</w>
p ad</w>
ob server</w>
leg ality</w>
analy ze</w>
a par
Fratt ini</w>
Cher no
1. 1</w>
obo dy</w>
lev ard</w>
gest ure</w>
bra ke</w>
oppon ent</w>
livel i
in her
for getting</w>
em ul
buil ds</w>
Conserv ative</w>
A P</w>
em in
eg g</w>
at tor
a via</w>
Sahar a</w>
Pr int</w>
4 00
pl ate
for ge</w>
plan es</w>
de ple
thick ness</w>
on ically</w>
in tolerable</w>
Go th
monit ors</w>
hand y</w>
ha usen</w>
formul ate</w>
fi x
M AR
Azer baij
speci alties</w>
bel l</w>
atten dance</w>
analy sed</w>
Parag raph</w>
reci pes</w>
lad y</w>
er i</w>
S. A.</w>
S on</w>
Rem ember</w>
Mar bella</w>
Cre ate</w>
me ta
ha ul</w>
edit orial</w>
Sen ate</w>
Rec ent</w>
PC s</w>
Lae ken</w>
w ic
pi pes</w>
ob struc
geo graphic</w>
el les</w>
ch o</w>
ca sts</w>
Ad am</w>
inc iner
in quiries</w>
illustra ted</w>
challeng ed</w>
C ateg
Bal i</w>
o st
cul min
c ens
rus h</w>
prof itability</w>
M C</w>
Cherno byl</w>
o res</w>
leg end</w>
author ization</w>
app ren
br ick</w>
absta in</w>
Wor ld
Po si
pe titions</w>
fish ery</w>
brow se</w>
stri ving</w>
dis semin
dis proportionate</w>
y ourselves</w>
gen e</w>
ass isting</w>
al -02</w>
R C</w>
H R</w>
well being</w>
strugg ling</w>
la v
grow ers</w>
war nings</w>
du ci
cle aring</w>
be am</w>
Z o
se venth</w>
reci pe</w>
pu zz
uph ol
ta sting</w>
s om
par titions</w>
ac ul
W W
N obody</w>
N ar
H in
ch a</w>
cere als</w>
break down</w>
ath on</w>
adju stable</w>
Hen ry</w>
sub way</w>
mal aria</w>
foc al</w>
farm er</w>
app liances</w>
U T
Si ena</w>
vers y</w>
loo p</w>
informa tive</w>
ev ed</w>
V all
Over all</w>
pati o</w>
neighbor hood</w>
el em
ca ke</w>
Ex clu
A ges</w>
2. 2</w>
tre k
ten ded</w>
mar ina</w>
imp acts</w>
conce iv
Regul ations</w>
R w
Cu be</w>
n es
fra ud
athle tes</w>
ak i</w>
12 8</w>
sp am
ra ft</w>
la sts</w>
Kla us</w>
198 3</w>
spati al</w>
m are</w>
exha us
b as</w>
out comes</w>
He ad
Guate mal
E quality</w>
was ted</w>
k an</w>
fi xes</w>
Y a
Wat son</w>
wi g</w>
re location</w>
me tric</w>
helicop ter</w>
M ID
wor sen
v able</w>
tw entieth</w>
scan ner</w>
obo da</w>
labor atories</w>
gri p</w>
n ach</w>
ill es</w>
Nic ol
y ach
pit ch</w>
dis gu
U z
par ish</w>
do se</w>
deep ening</w>
compres sed</w>
co lo
T or</w>
slog an</w>
promo tions</w>
entr usted</w>
ast e</w>
assor tment</w>
A x
st uck</w>
g i</w>
ut terly</w>
cru ise</w>
M en</w>
L ow</w>
restric ting</w>
exemp tions</w>
de but</w>
Ed itor</w>
A N</w>
wor ries</w>
ar ose</w>
silic a</w>
re assure</w>
gras p</w>
fol ders</w>
en di
Out look</w>
tail ed</w>
inter iors</w>
horiz on</w>
brow sing</w>
M ik
sacri fic
li tes</w>
for warded</w>
N O</w>
M I
theat res</w>
t ages</w>
mol ec
counter parts</w>
S M</w>
Po ints</w>
O il</w>
In dependent</w>
ECH O</w>
Card as
por tive</w>
photo graph</w>
mis use</w>
feren tial</w>
emb race</w>
ari anism</w>
tic k</w>
o is</w>
lo op
assign ment</w>
W ür
U PS</w>
L Y</w>
Govern ments</w>
ad dic
E E</w>
dis closure</w>
ci ted</w>
b low
ass istant</w>
P rec
Fran z</w>
zi p</w>
whe el
representa tions</w>
n y
Geor gian</w>
17 0</w>
photo graphic</w>
liber ties</w>
ig a</w>
spir its</w>
benef iting</w>
upgra ding</w>
tril lion</w>
tal e</w>
redund ancies</w>
ma ted</w>
Foc us</w>
E mer
tra ded</w>
mortg age</w>
is ons</w>
for ty</w>
flo ating</w>
co g
M IN
Eri ka</w>
her o</w>
dis course</w>
advertis ements</w>
T en</w>
v ec
si d</w>
s br
i fe</w>
fi xing</w>
d op
ori enta
hel m</w>
dis close</w>
V ig
P el
consum ed</w>
allow ances</w>
Ter minal</w>
skir ts</w>
proce eding</w>
Ty rolean</w>
Part ners</w>
Pan el</w>
L ower</w>
sq m</w>
retail ers</w>
commem or
M P</w>
et ar
Vis ion</w>
tr usted</w>
r ick</w>
evol ved</w>
desper ate</w>
Pat ent</w>
Ethi opia</w>
stra in</w>
shir t</w>
har vest</w>
contro versy</w>
In fin
Tur ning</w>
So ft</w>
R ub
EN T</w>
sti g
sta ff
nation alist</w>
jour neys</w>
han ging</w>
ener ge
D H
v ag
par ticles</w>
mid night</w>
dis playing</w>
appro ached</w>
Offic er</w>
r icul
prov inces</w>
phys ically</w>
sp an</w>
om o</w>
S op
Ex tre
D J</w>
appoin tments</w>
Sol ar</w>
R .</w>
targe ting</w>
photograph ers</w>
descri bing</w>
con secu
Y o
I deal</w>
fe eds</w>
asser t</w>
R he
Late Rooms</w>
under lines</w>
selec tive</w>
passion ate</w>
op pression</w>
jac u
hi a</w>
der ness</w>
Z ü
T ren
F ine</w>
st ur
remin der</w>
char ts</w>
pa tho
men te</w>
la p</w>
l ac
ge on</w>
dis regard</w>
Si x</w>
F F
Ch all
C amp</w>
umbre lla</w>
tu bes</w>
reco vered</w>
Cas tel
un spo
stre ams</w>
si o</w>
ren ts</w>
il a</w>
Qu ad
Ba h
Ar m
vigil ant</w>
tr as</w>
mag n
g ad
cin em
L R</w>
un ci
bur y</w>
tim a</w>
s ab
IF A</w>
B ris
ul ent</w>
sum mits</w>
rol ls</w>
read iness</w>
ill nesses</w>
g as
fai thful</w>
f es
comp ile</w>
clin ic</w>
R S</w>
lish ing</w>
com plying</w>
alcoho lic</w>
Nor we
Gar dens</w>
in tact</w>
elabor ate</w>
att aches</w>
addi tionally</w>
Lo dge</w>
vacc ination</w>
t é</w>
Ver ona</w>
E arly</w>
Bre men</w>
Bar ack</w>
se ize</w>
op ou
loc k
j ack</w>
c aves</w>
Plat form</w>
198 1</w>
12 5</w>
mot ors</w>
medi ation</w>
is e
accus ations</w>
Sw oboda</w>
vi ability</w>
simultane ous</w>
ren dering</w>
discipl ines</w>
ch ic</w>
Dis k</w>
Bar nier</w>
re ign</w>
priv ately</w>
An dr
spon tane
pass words</w>
T ext</w>
а н
ph et</w>
insul ation</w>
cros sed</w>
G O
spir ing</w>
no se</w>
cor ro
bou tiques</w>
practi se</w>
expres sive</w>
am ps</w>
F TP</w>
Enter tainment</w>
Caf é</w>
on ists</w>
inhab ited</w>
h all
E state</w>
ta to</w>
prohibi tion</w>
occup ying</w>
inter vals</w>
h ren
gl asses</w>
frame works</w>
Ma xim
F ace
197 3</w>
mo is
cultiv ated</w>
K arel</w>
Can al</w>
simil arly</w>
s at
prin ters</w>
plas ma</w>
K rem
u a</w>
st ol
sav es</w>
g ru
d an
compres sion</w>
b ungal
P ass</w>
2 ,000</w>
ti lity</w>
embar r
cosme tics</w>
Bel grade</w>
ic e
fulfil ment</w>
ag ers</w>
Su perior</w>
Q a
Cl ass
treas ures</w>
exter ior</w>
dil ig
R an
O d
Au to</w>
fa ults</w>
c ry</w>
Wolf gang</w>
For mul
Beau tiful</w>
organiz ational</w>
excur sion</w>
on es
be k
t ancy</w>
str ings</w>
state -01</w>
sm ell</w>
activ ation</w>
work able</w>
supran ational</w>
mis taken</w>
OR E</w>
B ase</w>
A viation</w>
o be
inf lic
f uc
co financing</w>
TE D</w>
P LA
Ma ison</w>
Grou ps</w>
im balance</w>
diff ers</w>
compar ative</w>
b und
ac oustic</w>
Rec om
Bol kes
ste pping</w>
politic al-
gen cies</w>
commun ism</w>
b alls</w>
assist ants</w>
am o</w>
Pal azzo</w>
Mer kel</w>
si e</w>
poc kets</w>
pd f</w>
n as
avi er</w>
Con trac
sole te</w>
To o</w>
N ever</w>
C es
1 3.
sc our
rem emb
amp li
I K
Bolkes tein</w>
the e</w>
philos op
clean er</w>
thin k-01</w>
rel -role-91</w>
hon oured</w>
have- rel-role-91</w>
allow ance</w>
Mer co
Johann es
b ap
appe als</w>
ad ventures</w>
Vis ual</w>
Mon ey</w>
G R
ridicul ous</w>
Coun ty</w>
ste ll
mer cy</w>
in justice</w>
t tes</w>
spe edy</w>
hi ke</w>
gl ory</w>
er ne</w>
ed ic
cab les</w>
bot tles</w>
Gener ally</w>
vent e</w>
ven irs</w>
gr ass
at tain</w>
assur ances</w>
an mar</w>
Num ber</w>
thodo x</w>
preced ence</w>
par all
incid entally</w>
h ate</w>
guar dian</w>
fun ny</w>
z ur</w>
work flow</w>
illustra tes</w>
Rim ini</w>
Ju li
re wards</w>
pre ferential</w>
empha sized</w>
Tru e</w>
SP A</w>
Blue tooth</w>
op ted</w>
C ant
ta ire</w>
si um</w>
po s</w>
E CO
v ested</w>
mach ining</w>
Peter sburg</w>
News letter</w>
Merco sur</w>
HOTE L</w>
B en</w>
par amount</w>
al qu
Ba hn</w>
Azerbaij an</w>
total itarian</w>
tic es</w>
perpetr ators</w>
Wi Fi</w>
S even</w>
Jan e
co w</w>
bas ket</w>
Bo li
temp t</w>
ko k</w>
defe ated</w>
be re
Sev enth</w>
gr ace
dis agreement</w>
pres ses</w>
foc us
derog ations</w>
b ills</w>
N ev
Met ro
Lam an
Kar l
IC T</w>
veter inary</w>
defici encies</w>
ap ix
T ony</w>
occup y</w>
j ar
cli matic</w>
Z one</w>
Uni ver
P R</w>
L ama</w>
197 4</w>
y pes</w>
k ies</w>
fi red</w>
a didas</w>
Vi ol
C oc
6 ,
19 30</w>
1. 3</w>
tis ed</w>
policy makers</w>
pan ic</w>
Hol lywood</w>
Gi ov
surpris ingly</w>
dis semination</w>
broch ures</w>
Po et
ne uro
impres sions</w>
illu sion</w>
contro llers</w>
acceler ated</w>
Ma king</w>
Es sen</w>
E ss
termin ate</w>
rob ot</w>
promp ted</w>
municip alities</w>
le g</w>
weak ening</w>
rac ks</w>
od d</w>
in comprehensible</w>
ac a</w>
Sp y
tion ers</w>
ti ce</w>
over looks</w>
exten sively</w>
condem ning</w>
ba hn</w>
Electr onic</w>
termin ology</w>
scri p
Johannes burg</w>
Del ta</w>
tra p</w>
or chestra</w>
om is
back wards</w>
b lic
at ting</w>
Vis a</w>
Sh are</w>
Mun ici
Moz illa</w>
Mar ine</w>
CP U</w>
tra ted</w>
let te</w>
legisl ator</w>
dict ator</w>
co d</w>
2. 1</w>
ti st</w>
config ur
U s</w>
T B</w>
R av
P es
E dit</w>
w rec
shel ter</w>
k ni
h re
er n
contrac tors</w>
Lt d.</w>
repres sive</w>
civil ization</w>
S I</w>
ti de</w>
L ot
z um</w>
reposit ory</w>
ra pe</w>
man us
le vel
an tes</w>
Or acle</w>
Deutsch land</w>
bol lah</w>
ban ner</w>
T ener
M á
J unior</w>
user name</w>
supple mented</w>
stro ke</w>
ill on</w>
ha r</w>
doctr ine</w>
d ney</w>
col ony</w>
Lad y</w>
Ac com
sw ing</w>
direc tories</w>
air space</w>
accomo dation</w>
Moz art</w>
Agricul tural</w>
new er</w>
m l</w>
imp unity</w>
episo des</w>
bel ts</w>
Sal v
My anmar</w>
the ories</w>
pron ounced</w>
imp lied</w>
d ine</w>
sli p</w>
l amp</w>
be fore
dispu ted</w>
dis order</w>
dest ined</w>
Ev ent</w>
Wal ter</w>
Per formance</w>
Goth enburg</w>
Cot on
tici pa
im a</w>
du plication</w>
AT ION</w>
ti fic
main stream</w>
gen es</w>
deliber ations</w>
decom mission
cra zy</w>
so m</w>
process ors</w>
pe er</w>
over coming</w>
ir rit
anxi ety</w>
V A</w>
tra m
cl er
an om
S cre
incorpor ation</w>
hi on</w>
Vis itors</w>
D et
us eless</w>
la tes</w>
fi bre</w>
conc ession</w>
bur ied</w>
bre w
advertis ement</w>
Camp ing</w>
Bu ff
un realistic</w>
squ ares</w>
sib ly</w>
moderni zation</w>
manoeu vre</w>
low ering</w>
es se</w>
Volk sw
Philipp ines</w>
H ot
Gi br
Car los</w>
Bet ter</w>
wa p</w>
re vel
ob solete</w>
do zen</w>
bar bec
Min i</w>
7 ,
- quantity</w>
we g</w>
vari ant</w>
ste pped</w>
restra int</w>
as so</w>
Tex as</w>
C R</w>
volun tar
re sting</w>
o vo</w>
infec tions</w>
honest y</w>
ang el
O L</w>
Import ant</w>
se hr</w>
ri des</w>
geo political</w>
exem pt</w>
an alog</w>
U g
Lan ka</w>
Hei del
2 20</w>
rou ting</w>
ni e</w>
m ming</w>
lo v
conceiv able</w>
bi zar
bar oque</w>
le ap</w>
di ff</w>
Mil itary</w>
Comm ander</w>
Col or</w>
y early</w>
stati stic</w>
recipi ents</w>
los is</w>
loc king</w>
il ation</w>
cri p
197 7</w>
sul ph
sequ ences</w>
wh is
repa irs</w>
ing o</w>
et al</w>
before hand</w>
Trans lation</w>
P VC</w>
Coton ou</w>
Al bert</w>
predomin antly</w>
pel ago</w>
mir rors</w>
cat ches</w>
bankrupt cy</w>
Ox ford</w>
For mer</w>
B rown</w>
15 00</w>
tur b
sta dium</w>
si ghted</w>
ri er</w>
porno graphy</w>
fl ats</w>
Vir tual</w>
Au gu
Al bu
Pr inc
Mo del</w>
super market</w>
rec y</w>
m at</w>
key words</w>
dru m</w>
comp ounds</w>
acc ord</w>
ur ban
in spire</w>
du bi
at orial</w>
acknowled ges</w>
Sp lit</w>
S cho
Lin k</w>
K rup
Contin ental</w>
mater nity</w>
hear t
di abe
bub ble</w>
bit ter</w>
Re in
Li ving</w>
P ul
Mo vement</w>
Bor n</w>
tra vels</w>
mer ger</w>
jacu zzi</w>
es co</w>
K an
I sch
wh ir
form ulation</w>
aci ones</w>
14 2</w>
win ding</w>
sec re
publish ers</w>
prescri bed</w>
entrepreneur ship</w>
endeav ours</w>
di vor
ak a</w>
Res erv
Rec o
plant ation</w>
pa th
com bus
ass ent</w>
anim ated</w>
Sustain able</w>
ME NT</w>
ü ber</w>
un resolved</w>
reg ain</w>
lo gging</w>
less ness</w>
clean ed</w>
ch emistry</w>
age ous</w>
Jo hn
Cre ative</w>
f law
dec lining</w>
applau d</w>
ap plause</w>
adap ter</w>
V a
M ade</w>
D .
sp in</w>
propor tions</w>
neighb ors</w>
in visible</w>
construc tions</w>
Bu y</w>
to y</w>
ri ders</w>
re alism</w>
ra c</w>
lan e</w>
k ling</w>
en g</w>
boo sting</w>
C rus
rad ar</w>
pur i
pro xy</w>
ne gl
aggres sion</w>
Poet tering</w>
L et
Know ledge</w>
K ul
re actors</w>
predic ted</w>
legisl ators</w>
ide als</w>
e g</w>
W as</w>
V ec
Mi gu
Laman ites</w>
w ash</w>
es ome</w>
erad ication</w>
consecu tive</w>
co ck</w>
att acking</w>
spher ic</w>
s na
pro tag
facilit ates</w>
dis cer
Inn sbr
Ether net</w>
vit ally</w>
shi fting</w>
mobil ise</w>
las ted</w>
hous ed</w>
good will</w>
co existence</w>
accompl ish</w>
B .</w>
witn essing</w>
vend ors</w>
v ings</w>
epide mic</w>
abund ance</w>
Flor ida</w>
E is
ski ers</w>
il ia</w>
e der
bene ath</w>
S hor
to l</w>
spir al</w>
op a
dynam ism</w>
c ensure</w>
ack ers</w>
Mal aga</w>
sub ordin
protection ist</w>
fab ric
den ial</w>
Tra ding</w>
Ta x</w>
Perf ect</w>
N OR
m ás</w>
er g
al y</w>
Num erous</w>
Du bai</w>
transl ator</w>
pregn ant</w>
incorpor ates</w>
fortun e</w>
den burg</w>
deli ghts</w>
but ter</w>
appar atus</w>
La w
o ak</w>
la im</w>
hear ings</w>
Imperi al</w>
DV Ds</w>
Bo hem
9 0
tac tics</w>
spe l</w>
hor n</w>
ful l
U V</w>
Sy rian</w>
Blizz ard</w>
vers a</w>
rep lied</w>
hier archy</w>
flu id</w>
25 th</w>
coo ked</w>
Por t
L IF
Fil es</w>
ti ll
se a
fai rer</w>
char ity</w>
Ev ents</w>
under go</w>
dubi ous</w>
brow sers</w>
an xious</w>
an ten
Volksw agen</w>
M ak
K ab
J ah
Cor n
Conver ter</w>
Commer cial</w>
Ara bic</w>
р е
п о
pain ter</w>
can al</w>
Sp ec
Can aria</w>
thre n</w>
ser t</w>
mead ows</w>
he ter
distribu tor</w>
decreas ed</w>
ber cu
Republic an</w>
Gran de</w>
ten ts</w>
l ung</w>
heim er</w>
distribu ting</w>
at tle</w>
Cann es</w>
Bang lad
Bang kok</w>
B E
whe at</w>
view point</w>
tal ented</w>
seem ingly</w>
Reg ister</w>
Har ry</w>
tu torial</w>
re new</w>
d ental</w>
counterfe iting</w>
an en</w>
K U
G ö
Fre i
swit ched</w>
over looked</w>
in scri
Face book</w>
exci tement</w>
do ck</w>
az z
albu ms</w>
V ladi
Un it</w>
sec rets</w>
lo t
Steph en</w>
Innsbr uck</w>
sli des</w>
de eds</w>
aes the
Sub mitted</w>
Pla yers</w>
Op port
May or</w>
E cu
C FP</w>
A par
survi ved</w>
scand alous</w>
myst erious</w>
j un
WH O</w>
VIE W</w>
Tener ife</w>
interpre ting</w>
gi bility</w>
S R</w>
F ed</w>
slo ts</w>
sa tel
nom inal</w>
land mark</w>
ho tel
ele gan
corner stone</w>
car t</w>
T otal</w>
Manu fac
stret ches</w>
re taining</w>
pol ite</w>
bra ve</w>
bercu losis</w>
T .</w>
Norwe gian</w>
Se bas
E ither</w>
ris ky</w>
j u</w>
fat al</w>
ar rog
So fia</w>
P sy
Cre te</w>
CA N</w>
7 0
v or</w>
sec recy</w>
repe ating</w>
m t</w>
responsib ly</w>
reli es</w>
no vel
hosti le</w>
Man n</w>
Krem lin</w>
I ron</w>
Bo log
stoc k
sor ted</w>
solv ency</w>
lo yal</w>
equ ili
den se</w>
dec lined</w>
amate ur</w>
P OR
propor tionality</w>
interpre ters</w>
S K
pe z</w>
negl ect</w>
gate way</w>
democ rats</w>
S V
R ud
A stri
z en
di ent</w>
O u
IS A</w>
F P
un wind</w>
tro l
flow ing</w>
cham pionship</w>
Ro th
Po s
Ge o
Fif th</w>
Des ktop</w>
2. 4</w>
hand les</w>
argu ing</w>
Jo in</w>
Econom y</w>
Armen ia</w>
Ar rival</w>
A part
ti fy</w>
star ship</w>
spon sors</w>
gl i</w>
adminis tered</w>
H ab
Eur atom</w>
wai ver</w>
ro tation</w>
provisi onal</w>
out lets</w>
is se</w>
investig ating</w>
gl acier</w>
contradic tions</w>
batt les</w>
Boo ks</w>
z za</w>
interpre tations</w>
Formul a</w>
Autom atic</w>
Air ways</w>
. jpg</w>
th al
p oul
imprison ment</w>
ak ed</w>
Mess enger</w>
H ö
1. 4</w>
ware house</w>
no c
in spiring</w>
doub led</w>
conver ter</w>
aw n</w>
Man chester</w>
IR C</w>
ordin arily</w>
m ese</w>
is che</w>
for cement</w>
enor mously</w>
cop ter</w>
an k
Sy dney</w>
Shu ttle</w>
ON E</w>
Kaz akh
under water</w>
Sil ver</w>
Natur a</w>
Moroc can</w>
travel ler</w>
mi ghty</w>
in as</w>
ignor ing</w>
diagno stic</w>
coordin ator</w>
at ings</w>
an e
an cho
W oo
U su
In c.</w>
th ol
l on
d ums</w>
at ar</w>
Ser bs</w>
Cer tain</w>
scan ning</w>
ref uses</w>
nine teenth</w>
market place</w>
hydro gen</w>
hom eland</w>
co di
blan k</w>
attrac ts</w>
apolog ise</w>
R é
Orig inal</w>
Gibr altar</w>
Equ al</w>
Con struction</w>
Com fort</w>
sm ile</w>
id es</w>
contex ts</w>
cap tain</w>
bizar re</w>
Wor kers</w>
Pat ri
pregn ancy</w>
lob by
cas inos</w>
bom bing</w>
Pro gress</w>
w i</w>
n ano
ho b
gener ator</w>
gastronom y</w>
bench mark</w>
W ay</w>
wholes ale</w>
rac ial</w>
gu ess</w>
gra vity</w>
ex e</w>
ater alism</w>
o de</w>
W AR
I E</w>
Diffe rent</w>
sha de</w>
premi er</w>
coo k</w>
c ess
amp agne</w>
ali en</w>
W on
w all
under going</w>
Thea ter</w>
S at
F R
Du is
Am bassador</w>
reciproc ity</w>
r .
nic ely</w>
kid n
e ternal</w>
Cle an</w>
sup pose</w>
rhy thm</w>
manufac tures</w>
bre thren</w>
H app
milit ar
gradu ated</w>
Quar tet</w>
Gon z
F T</w>
An k
Af ter
Ad ded</w>
t ags</w>
spon sor</w>
sear ches</w>
re jects</w>
pay able</w>
p to
fi er
crow ded</w>
R emo
safeguar ded</w>
log ged</w>
k able</w>
extremis m</w>
emer ges</w>
T elec
R oth</w>
G au
Er n
profession ally</w>
l v
cri tically</w>
MID I</w>
Gre ater</w>
Fis cher</w>
Aff ili
techn icians</w>
may or</w>
je wel
exce eding</w>
con form</w>
alle ge
Scot t</w>
Euro copter</w>
st om
slau gh
shoc ks</w>
analy sing</w>
W ag
B ac
sun set</w>
sa il
re viewing</w>
or ship</w>
merchan dis
im migrant</w>
an thro
acul ture</w>
L ob
Dal ma
supple ments</w>
pro hib
mat urity</w>
intensi fy</w>
enter taining</w>
ad diction</w>
Shar on</w>
Sec ure</w>
Mari e</w>
Conserv atives</w>
14 .
conver ting</w>
b ans</w>
N avi
B SD</w>
- B4</w>
sur prises</w>
nu ts</w>
i als</w>
he i
extremis ts</w>
constitu ted</w>
Orig in
su nam
refriger ator</w>
observ ing</w>
mer ged</w>
free ze</w>
Quar k
Krup p</w>
sla very</w>
out dated</w>
appear ances</w>
S CH
Ma p</w>
7 50</w>
y en</w>
referen dums</w>
flav our</w>
exc ise</w>
co ver
c ad
R ele
Fried rich</w>
C 6</w>
v as</w>
r atory</w>
mon g
Ste fan</w>
H ot</w>
ome tric</w>
al on
sculp tures</w>
rul ers</w>
rou s</w>
fire wall</w>
ear ing</w>
In tro
C are</w>
tor ious</w>
ste ms</w>
spec t
G S</w>
Bolog na</w>
pil ots</w>
ot ti</w>
alleg ations</w>
Re fu
Gal icia</w>
travel led</w>
k ick</w>
bar bar
avoid able</w>
Wi ki
U T</w>
B log</w>
mar ch</w>
lig ent</w>
enrich ed</w>
de tained</w>
affili ated</w>
F itness</w>
y ar
se ized</w>
inf lam
easi est</w>
ad jour
Sh opping</w>
Go e
F eli
D er
Bat tle</w>
Andalu sia</w>
the ft</w>
ssel t</w>
s ket
micro wave</w>
f led</w>
exhib its</w>
S mart</w>
tal ents</w>
smugg ling</w>
har ov</w>
divi d
authentic ation</w>
Bar oque</w>
A ar
tr us
min d
light weight</w>
f lan
edi tions</w>
chan n
ch est
R E</w>
Im ple
tu r</w>
ta ted</w>
po et</w>
he dge</w>
fon ts</w>
eradic ate</w>
courte sy</w>
am ente</w>
Kazakh stan</w>
De b
B urg
uph eld</w>
testi mony</w>
t ally</w>
mo dem</w>
lu ded</w>
fri gh
e ager</w>
be aten</w>
asy m
symb ol
quick er</w>
ques tioned</w>
nor m</w>
h m</w>
ex changed</w>
d read
comp lies</w>
Nic hol
M üller</w>
H I</w>
Flo ren
y le</w>
super markets</w>
dro me</w>
an nex</w>
Sak harov</w>
Catal an</w>
tre ats</w>
fri ed</w>
T elev
Categ ory</w>
ou l</w>
mu y</w>
gastronom ic</w>
e es</w>
dil em
ch ill</w>
caf és</w>
rich est</w>
e stro</w>
au f
PC I</w>
offer ings</w>
mean while</w>
an ity</w>
Po sselt</w>
Pen sion</w>
M emb
Ca stro</w>
At lan
ä l
z h
tion ist</w>
n erv
even tual</w>
eco systems</w>
Six th</w>
R ab
vo d
standardis ation</w>
origin ating</w>
im minent</w>
fit tings</w>
equili bri
consult ant</w>
Fran co</w>
s ke
camp site</w>
SL R</w>
R T
Le e</w>
Hosp ital</w>
Del uxe</w>
Def ense</w>
tel es
t .
dest iny</w>
alle viate</w>
Tur n</w>
Th ess
Sh ort</w>
O M</w>
Magaz ine</w>
floo ding</w>
ess ly</w>
amp ing</w>
absor ption</w>
a o
Bur mese</w>
jour nal</w>
entrepreneur ial</w>
bis hop</w>
anc er</w>
W E</w>
н а
squ ee
ren e</w>
ge able</w>
bur ger</w>
Guar ante
sub ur
frustra tion</w>
at ers</w>
Vir gin</w>
Pak ist
H ôtel</w>
j ub
bo ot
t are</w>
poss esses</w>
include -91</w>
bon uses</w>
Veg as</w>
Fri ends</w>
F res
re produce</w>
proc laimed</w>
ow ns</w>
o g</w>
S eller</w>
Por tal</w>
Mari o</w>
l enses</w>
exp ul
eu tenant</w>
eri als</w>
be tra
ad missible</w>
ac tress</w>
won ders</w>
val ence</w>
scrat ch</w>
he gem
fran k</w>
b n</w>
Ram bl
H ay
re built</w>
rac ed</w>
eas ing</w>
deplo y</w>
consolid ating</w>
an to</w>
ag no
Tran s</w>
Dy nam
lec ture</w>
frag mentation</w>
fant asy</w>
M e</w>
Ide ally</w>
HT TP</w>
20 14</w>
ten stein</w>
pers ist</w>
out skirts</w>
medic ation</w>
industri alised</w>
cab inet</w>
am id
Se attle</w>
R ica</w>
Mar x</w>
un deni
ste l
main streaming</w>
lo ses</w>
car to
bor row
H ur
Bor g</w>
196 9</w>
recogni zes</w>
ju ven
en quiry</w>
ar om
acc or
C row
serv ant</w>
jung le</w>
hal f
an ony
Pan or
Be hold</w>
3 ,000</w>
w ouldn</w>
sig nation</w>
ph y</w>
mon t</w>
ex tradition</w>
construc ting</w>
concentr ating</w>
cat ching</w>
bo ast</w>
sar ge</w>
pos ter</w>
ca ter</w>
ag na</w>
RA N
Op ening</w>
u no
th ur</w>
sub tle</w>
sec retariat</w>
in valid</w>
distor ted</w>
circul ar</w>
a e
P G</w>
Mem ory</w>
F ro
inven tions</w>
ign ano</w>
fundament alism</w>
atom ic</w>
Med ina</w>
Commun ications</w>
succ ession</w>
poe try</w>
mo tives</w>
mo s</w>
commit ting</w>
cle ared</w>
R and
Inte gration</w>
harmon ising</w>
Tw itter</w>
To ol
TE N
SE O</w>
wat ched</w>
utili zation</w>
tribu tion</w>
treas ure</w>
confir ming</w>
cli ffs</w>
Har d
A lic
00 0
strate gically</w>
shoc ked</w>
oxy gen</w>
gg ers</w>
do -02</w>
divi ding</w>
ass uring</w>
Stein berg</w>
Er as
Ch ris</w>
3 5
voluntar ily</w>
rock y</w>
mig ratory</w>
et ta</w>
emo tion</w>
Pri or</w>
C ards</w>
B eli
wil derness</w>
vigor ously</w>
tranqu ill
pat ches</w>
go d</w>
ges tion</w>
cont acted</w>
an gered</w>
Win d
Tra in</w>
F ru
Comm ons</w>
rel ying</w>
dra in</w>
communic ating</w>
aero space</w>
T able</w>
Econom ics</w>
n ick
man a</w>
main tain
identi ties</w>
gen re</w>
Pay ment</w>
ME DA</w>
Est ab
pra yer</w>
p end
et c.</w>
con sume</w>
caf e</w>
bor rowing</w>
attribu te</w>
P f
Ba j
expl oration</w>
biom ass</w>
an dum</w>
K ash
Cur rent</w>
re warded</w>
in tr
M echan
suff ers</w>
s its</w>
pic king</w>
i on
govern or</w>
Th ings</w>
Ta x
Some thing</w>
vari ation</w>
sta ir
shir ts</w>
respon ds</w>
min erals</w>
k its</w>
absor b</w>
D B</w>
un as</w>
sco red</w>
imperi al</w>
expec tation</w>
V II</w>
perio dic
catastro phic</w>
D F
-0 6</w>
w en
te e</w>
pu b</w>
person alised</w>
mis understanding</w>
ign ment</w>
fol ding</w>
b au
alig ned</w>
Trans fer</w>
Pun ta</w>
Bi ble</w>
Appro val</w>
roun d
Thess alon
1. 6</w>
vacc ines</w>
trek king</w>
an ol</w>
T au
R ich
N CC</w>
Montre al</w>
Ca diz</w>
Az ur</w>
trans posed</w>
or nam
o zone</w>
ne sty</w>
mo dation</w>
ev acu
cl ay</w>
Uni x</w>
red ress</w>
Z ap
Som alia</w>
For m</w>
rep lies</w>
oun dly</w>
ogene ous</w>
le m</w>
U M</w>
L .</w>
K it
woo dy</w>
soc cer</w>
sig ni
prov in
Z ak
H at</w>
E DF</w>
re consider</w>
de vi
ass is</w>
W hi
Guatemal a</w>
syste mic</w>
stup id</w>
inter act</w>
ic ans</w>
er ta</w>
Un ter
P XI</w>
La b</w>
undermin es</w>
imperi alist</w>
gr in
dr ying</w>
Rambl as</w>
Coun cils</w>
un wanted</w>
p ins</w>
certain ties</w>
amid st</w>
Set tings</w>
Mon aco</w>
BA E</w>
mu d</w>
fea sibility</w>
dis ks</w>
cru el</w>
bl at
aff lic
Qa eda</w>
Nep al</w>
J ack</w>
I z
Gu i
Fin al</w>
st oring</w>
rot ating</w>
V in
U P
Cypri ot</w>
taxpay er</w>
sculp ture</w>
ha ul
concer ted</w>
bre ed</w>
N ag
qui e
philosoph ical</w>
lan der</w>
cur ricul
comple mented</w>
T U</w>
Particul arly</w>
J un
or able</w>
nucle us</w>
nam o</w>
lan es</w>
answ ering</w>
U EN</w>
Por sche</w>
P oc
Mes se</w>
F lu
poul try</w>
pl uses</w>
origin ated</w>
illustra tion</w>
fer tile</w>
farm house</w>
emb ark</w>
dis able</w>
compli ant</w>
Pen insula</w>
w ur
tu ous</w>
temp tation</w>
regi on
pe ar
justi fiable</w>
im aging</w>
hard t</w>
duplic ate</w>
collap sed</w>
Banglad esh</w>
mer gers</w>
ket ball</w>
icy cle</w>
decor ative</w>
T ol
S eas
Rom ul
Mo ham
IT S</w>
B B
mis ery</w>
ch in
10 1</w>
un authorized</w>
tour istic</w>
syner gies</w>
sc attered</w>
instru mental</w>
Per u
Luc erne</w>
Li ech
ther hood</w>
regis try</w>
ones elf</w>
is son</w>
ine m</w>
extra ordinarily</w>
ak is</w>
le ague</w>
ambi ance</w>
Zü rich</w>
Sk i
S imp
ten den
ques tioning</w>
la b</w>
har assment</w>
elev ator</w>
N ord
Lin ks</w>
Got t</w>
ó w</w>
rus tic</w>
phy si
dres sing</w>
Mis sion</w>
Equi pment</w>
tun ing</w>
p ink</w>
ght ness</w>
cra fts</w>
Tradi tional</w>
Inf o</w>
explo red</w>
en ne</w>
ab used</w>
S top</w>
Provi der</w>
Chi anti</w>
A li
p pe</w>
it als</w>
ext inc
O w
Bu t
0 7
á namo</w>
u k
stipul ates</w>
regis tering</w>
ran es</w>
lo dging</w>
lic he</w>
aus p
analy tical</w>
amoun ting</w>
acqu iring</w>
P ut</w>
P I</w>
Individu al</w>
Guant ánamo</w>
Consum ers</w>
Ch al
conf using</w>
al ph
Photo shop</w>
Eng ine</w>
Con federal</w>
B ath</w>
snt 1</w>
re start</w>
il itation</w>
hor mon
de vised</w>
de rer</w>
aqu aculture</w>
Where as</w>
K il
D eleg
Cer tific
AR T</w>
sup portive</w>
proce eds</w>
pol ar</w>
hop s</w>
ag on
Re turn</w>
Lu f
wild life</w>
valid ation</w>
multi -
multi- sentence</w>
identi fies</w>
eli gibility</w>
domin ate</w>
cosmo politan</w>
Val ent
In side</w>
F arm
An der
16 .
to c
evol ving</w>
el o
d rought</w>
cigare ttes</w>
ag gra
Accom modation</w>
satis fying</w>
explo sive</w>
er r
atmo spheric</w>
OR K</w>
I ber
Bab y
10. 00</w>
stol en</w>
seaf ood</w>
presti ge</w>
pir acy</w>
oo s</w>
Ul timately</w>
Chi rac</w>
Bon us</w>
B ern</w>
vou cher</w>
vo iced</w>
tra ine
t sunam
reluc tant</w>
re produced</w>
me tr
lik eli
hor ror</w>
commen ted</w>
centr alised</w>
E ve
B ell
ship building</w>
occurren ce</w>
lo dge</w>
glob alised</w>
emphas ising</w>
correspon dence</w>
aggreg ate</w>
tr as
si ves</w>
scar cely</w>
reli ably</w>
pion ships</w>
mus cles</w>
mon etar
liber alism</w>
hy dr
f ills</w>
desper ately</w>
com promising</w>
G I</w>
y n</w>
question na
pro hibit</w>
envis age</w>
bicy cles</w>
bet t</w>
M T</w>
Ara fat</w>
Ang ola</w>
10 5</w>
wonder ing</w>
shoc king</w>
se ven
s lower</w>
ple dge</w>
magn itude</w>
b ail
Se y
D ark</w>
utilis ation</w>
ren ted</w>
off shore</w>
compu ting</w>
comman d
b ü
Silver Fast</w>
S ü
Re al
Indone sian</w>
IN D</w>
Com pa
z ano</w>
wei gh</w>
snt 2</w>
portra it</w>
pol ls</w>
ligh ter</w>
advant ageous</w>
EC T</w>
w ir
pix el</w>
jac ket</w>
hi ding</w>
elegan tly</w>
differenti ated</w>
correc tions</w>
S adly</w>
Pack age</w>
197 2</w>
0 8
specul ative</w>
scour ge</w>
peace fully</w>
in sights</w>
friend liness</w>
der ive</w>
You Tube</w>
Reco very</w>
Jo han
un lawful</w>
s por
capit als</w>
c ats</w>
P al</w>
Ex am
Car diff</w>
ra m
is mo</w>
im position</w>
advoc ating</w>
Hil ton</w>
Agre ements</w>
standardi zed</w>
deal ings</w>
K rak
K E
J ak
D ell</w>
vig orous</w>
protot ype</w>
marg inal</w>
ag an</w>
P it
J azz</w>
Di v
Conven i
sur pluses</w>
spo t
ric her</w>
honest ly</w>
fil tration</w>
d ul
Sound proofed</w>
Lab VIEW</w>
Gro s
4. 5</w>
re de
popul ist</w>
my th</w>
in h
abund ant</w>
H A
equilibri um</w>
cli ps</w>
an alo
administr ators</w>
Sta tement</w>
S port
Pot s
Mu si
san itary</w>
s ick
ill o</w>
execu tives</w>
equ itable</w>
den ying</w>
cru ci
SER V
Recom men
P ati
unil aterally</w>
under pin
shi fted</w>
re acted</w>
occup ies</w>
coordin ates</w>
convic tions</w>
bound ary</w>
Usu ally</w>
Ta j
P ay</w>
Heidel berg</w>
C had</w>
B L
As k</w>
vis or</w>
un ya</w>
tric ks</w>
t enth</w>
reason ing</w>
h ill
combus tion</w>
cl oud</w>
car pet</w>
P O</w>
ñ os</w>
u k</w>
tu rers</w>
to ken</w>
sal on</w>
prob ability</w>
lab elled</w>
ir re
explo iting</w>
Qu ick
P N
Comple te</w>
C off
un used</w>
load er</w>
degra dation</w>
Oli ver</w>
L as
K ris
Br and</w>
B and</w>
neo liberal</w>
empha tically</w>
dis appearance</w>
ban kers</w>
1. 0</w>
wit nesses</w>
para dig
mass es</w>
m ou
Applic ations</w>
vo y
ur ging</w>
trans c
post ers</w>
po tato</w>
maj estic</w>
c as</w>
allege dly</w>
R econ
Napo le
In forma
Gar dena</w>
5 000</w>
tis an</w>
ti mated</w>
discrimin ate</w>
cog ni
V ac
Mil es</w>
Giov anni</w>
hol istic</w>
cu p
coun cils</w>
IT H</w>
IT E</w>
sec retary</w>
for warding</w>
fluctu ations</w>
colo red</w>
M ann
to ire</w>
ev ing</w>
es cor
argu es</w>
Telev ision</w>
T Y</w>
3. 2</w>
vent ura</w>
res et
i der</w>
free zing</w>
decentr alised</w>
Mul ti</w>
vo y</w>
ff el</w>
co ts</w>
Fe el</w>
E mb
E lis
whir l
re tains</w>
in take</w>
antibio tics</w>
accumul ated</w>
Hol ding</w>
Eras mus</w>
w ag
log ist</w>
lag o
Dom in
. NET</w>
un sustainable</w>
princip ally</w>
ev o
dec ou
con fine</w>
cas ual</w>
after math</w>
Ga ul
lobb ying</w>
decisi vely</w>
as ph
Sta tis
St one</w>
H i</w>
Buddh ist</w>
2. 3</w>
. html</w>
wor ship</w>
pa ste</w>
lin s</w>
her bs</w>
head er</w>
ex ual</w>
electr onically</w>
che str
a ine</w>
Lux ury</w>
Han nover</w>
tenden cies</w>
presid ents</w>
favor able</w>
decommission ing</w>
w ings</w>
rin ge</w>
moder nity</w>
jo ins</w>
desig nation</w>
as ted</w>
Ro se</w>
Mon go
Al ways</w>
scienti st</w>
re public</w>
ra is
fo am</w>
Quar ter</w>
Opport unities</w>
IM O</w>
port -01</w>
ground water</w>
Four th</w>
De ar</w>
vi bration</w>
prolong ed</w>
on au
liber ation</w>
gau ge</w>
de plore</w>
addi tions</w>
Stand ards</w>
Op tions</w>
In surance</w>
Hal f</w>
Al i</w>
ä t
v ines</w>
under gone</w>
mus cle</w>
m n</w>
gar ten</w>
dro ps</w>
d al
comp rise</w>
R A</w>
Kur ds</w>
ra g
ff le</w>
embry os</w>
def ensive</w>
co ated</w>
bloo d
ar sen
M ail
Com pos
swit ches</w>
re signation</w>
prefer able</w>
hin der</w>
Po ker
I O
store y</w>
shi eld</w>
log ists</w>
end -01</w>
Thessalon iki</w>
S ME</w>
wal d</w>
veget arian</w>
ten ding</w>
sur round</w>
pun c
likeli hood</w>
attach ment</w>
Mo tion</w>
E OS</w>
C ore</w>
C lu
9 ,
ver dic
utili ties</w>
ship ments</w>
p acks</w>
off line</w>
ins isting</w>
gro ves</w>
fla ir</w>
ad ar</w>
ac res</w>
Sw imming</w>
Cor bett</w>
30 th</w>
15 .
mil li
log is
lo v</w>
lic hen</w>
i di
d .
be verage</w>
L ig
0 ,
gra ve
eth anol</w>
U P</w>
political- party</w>
Re alty</w>
M I</w>
ER S</w>
Dim en
A zo
ä t</w>
sli ding</w>
satel lites</w>
de vise</w>
Tran spa
Ly n
I mp
Foot ball</w>
D aily</w>
C ity
reimbur sement</w>
mal ware</w>
j n</w>
ero sion</w>
del le</w>
cli p</w>
clean sing</w>
Wal king</w>
Eve rest</w>
th al</w>
provin cial</w>
pre h
harmon ic</w>
down turn</w>
ate red</w>
N H</w>
schol ars</w>
ra b
arm ies</w>
Terr or
Rom ans</w>
Pres tige</w>
Con tr
v ain</w>
remain der</w>
lin e
grace ful</w>
fac tion</w>
ass a</w>
al to</w>
ab ul
IV E</w>
Gener ation</w>
prefer ably</w>
hun gry</w>
bor dering</w>
N ine</w>
Foun ded</w>
minim ize</w>
di gi
Ma x
ver sus</w>
than e</w>
plate au</w>
land ers</w>
corrid ors</w>
configur ations</w>
Infin eon</w>
Com ing</w>
rig our</w>
en large</w>
comp ilation</w>
br us
belong ed</w>
Belar u
ñ o</w>
yi elds</w>
trans forming</w>
st ack</w>
re funds</w>
os a</w>
ol ine</w>
cry st
b logs</w>
Rec ords</w>
Nu rem
Gen oa</w>
ro ll
lo ves</w>
Maur it
1 15</w>
perce ive</w>
or n</w>
i en</w>
P over
Mal m
G il
23 rd</w>
volati lity</w>
tranquill ity</w>
ro gen</w>
fa ç
dun es</w>
conve y
c or</w>
S ign</w>
т о
loc a
Py re
G .</w>
Canc ún</w>
syn thesis</w>
po ts</w>
mus ician</w>
lo u</w>
ex hibit</w>
em i
e tho
convers ations</w>
contribu tors</w>
b are</w>
Inte grated</w>
In dex</w>
He z
2. 6</w>
th rowing</w>
peace keeping</w>
helicop ters</w>
figh ters</w>
Reserv ations</w>
Pal m</w>
P K
Mo ve</w>
Manu el</w>
Instru ment</w>
Deli very</w>
Cru z</w>
in tru
f lic
commun al</w>
aw a</w>
Pro ble
A F</w>
1 20
wi e</w>
ne st
lab eled</w>
im plants</w>
ex istent</w>
brea the</w>
im porting</w>
gi on</w>
ad ers</w>
So on</w>
Sim on</w>
Mer cure</w>
MP EG</w>
Fo x</w>
A tt
tu ary</w>
nom ination</w>
nav al</w>
m ud
fi ers</w>
de c</w>
Gu ard</w>
D é
un willing</w>
si mis
prec eding</w>
on t</w>
nar row
enfor ce
con gestion</w>
bloo dy</w>
Al z
10 3</w>
é n</w>
con s</w>
R oo
A la
A B</w>
197 1</w>
persecu ted</w>
ot age</w>
jeopardis e</w>
conflic ting</w>
Soc rates</w>
S li
I stri
D ay
C are
strugg les</w>
scienti fically</w>
ho stage</w>
adju sting</w>
Scandin avian</w>
Sahar an</w>
Rot ter
E p
ve au</w>
le af
fe ared</w>
accum ulation</w>
R ail</w>
N y
Ap par
te es</w>
pul led</w>
nation ally</w>
ed itors</w>
cylin der</w>
am ics</w>
Luk ash
IC A</w>
re building</w>
non sense</w>
mir acle</w>
ignor ance</w>
er on</w>
comman ded</w>
cli p
cigare tte</w>
V ari
195 0s</w>
ve y</w>
in t
hor se
cur i
S le
G SP</w>
tu berculosis</w>
po d
fi ber</w>
evid ently</w>
ap ple</w>
Vladi mir</w>
Th ir
Rw anda</w>
Inclu ded</w>
rever sible</w>
g ently</w>
euro pe
equi p</w>
e iner</w>
Z agre
We ek
Euro just</w>
v et</w>
st av
s berg</w>
prud ent</w>
minim ise</w>
i tion</w>
ex ile</w>
enclo sed</w>
com positions</w>
attrac ting</w>
s -</w>
pi an
ho o</w>
azi one</w>
am id</w>
Liech tenstein</w>
De sig
C MS</w>
lau gh
ex changing</w>
co asts</w>
E .</w>
Cor s
3. 1</w>
rou t
or ino</w>
i ter</w>
eri ted</w>
end angered</w>
c ow
assa ult</w>
ST O
stand point</w>
dur ability</w>
c us</w>
bud ge
believ ing</w>
Rotter dam</w>
Pover ty</w>
C .
3 8
100 ,000</w>
т е
vend or</w>
ran ked</w>
m ills</w>
at tr
absor bed</w>
Memb ership</w>
Ar ch
Ann an</w>
A re
mem orial</w>
m g</w>
g ulf</w>
band width</w>
alter nate</w>
Sur rounded</w>
Sch war
In cid
w ant
there in</w>
pun ish</w>
occa sional</w>
li e
le an</w>
head ings</w>
fo stering</w>
end ants</w>
en han
aston ishing</w>
We ek</w>
integra tes</w>
cou p
bal lot</w>
Pro te
Met al</w>
Ly on</w>
ti te</w>
ri ght
prep -
inh erited</w>
cur ve</w>
cul t</w>
cre ations</w>
cra fted</w>
coinci dence</w>
Treas ury</w>
Tra ff
Ten nis</w>
Re ding</w>
Dal ai</w>
t sch
n ally</w>
motor ways</w>
li b
deleg ates</w>
amen do</w>
V eri
Sh ine</w>
Nurem berg</w>
Jar z
Hez bollah</w>
G AT
Co st
t all</w>
roof top</w>
re distribution</w>
projec ted</w>
m ate</w>
Al pes</w>
un conditional</w>
she er</w>
loca ust</w>
grass roots</w>
perfec tion</w>
l or</w>
dom ination</w>
Catal unya</w>
w ird</w>
compli ment</w>
IN I</w>
A BA
A 1</w>
é ri
vine yard</w>
sp ells</w>
s ink</w>
ass ed</w>
adop ts</w>
I O</w>
Em plo
scre w</w>
reciproc al</w>
prospec tive</w>
ga tives</w>
Regis tration</w>
O h</w>
A bra
un reasonable</w>
mi a</w>
m ally</w>
instruc tors</w>
Stu dents</w>
P ear
tsunam i</w>
ta ine</w>
o sc
inter cultural</w>
ch s</w>
barbec ue</w>
Y ears</w>
T ay
ro ller</w>
pa irs</w>
franch ise</w>
clic ks</w>
Tri bunal</w>
No vo
Lom é</w>
res on
li abilities</w>
le x</w>
bac teria</w>
any time</w>
Jarz emb
G ru
Ch ur
---- ----
parad ox
olu tionary</w>
navig ate</w>
is ites</w>
im pover
don ated</w>
adjour ned</w>
Wall ström</w>
J et</w>
sha des</w>
sal mon</w>
on ist</w>
k al
ch assis</w>
Sch mid
un ambiguous</w>
reti red</w>
qu er
mel o
in forms</w>
frag mented</w>
evol ve</w>
cle ver</w>
c c</w>
architec tures</w>
X Press</w>
T ours</w>
Leban ese</w>
vi o</w>
c av
Pis a</w>
E ven
Ad m
t ang
sen Krupp</w>
pres ently</w>
po is
es y
enh ancement</w>
back grounds</w>
bab ies</w>
W olf</w>
F ou
Colum bia</w>
stres sing</w>
remedi es</w>
rein forcement</w>
k ms</w>
clear ance</w>
p se
is i</w>
crow n</w>
blo c</w>
a w</w>
Thys senKrupp</w>
Ne ed
&apos; E
dr astically</w>
ar is</w>
Sem i
ME N
Jarzemb owski</w>
Con duc
sp ra
chi o</w>
c ite</w>
Oper ation</w>
Mar tini</w>
B it
An dor
AV I</w>
sp r
program med</w>
counterfe it</w>
con tempt</w>
ban qu
W S</w>
W ITH</w>
196 5</w>
view ers</w>
tr ick
sur render</w>
se aled</w>
me g
mathema tical</w>
eco system</w>
distur bed</w>
Ug anda</w>
T in
LIF E</w>
H C</w>
seri e</w>
pione ering</w>
mer ge</w>
diabe tes</w>
comp ound</w>
an ic</w>
T ak
Pho en
Mil ano</w>
Mi ra
Exper ts</w>
é n
or ious</w>
institu tion
ig i</w>
enhan ces</w>
volcan o</w>
super vised</w>
plu gins</w>
flag ship</w>
door step</w>
din ners</w>
Sho e</w>
Rad isson</w>
O range</w>
L D</w>
Ben z</w>
Azo res</w>
premi ums</w>
pes simis
no ch</w>
hun t</w>
dis ruption</w>
pris ing</w>
inten sively</w>
ber ries</w>
Tun es</w>
Tit le</w>
Rou te</w>
nerv ous</w>
inti mi
ick ers</w>
hi kes</w>
foun tain</w>
boo ts</w>
ar c
accoun ted</w>
youn gest</w>
intellec tu
fl ame</w>
de -01</w>
custom ary</w>
color ful</w>
bre w</w>
av ant</w>
Mo de</w>
Acc ession</w>
sp reads</w>
reg re
cot tage</w>
cha ired</w>
T on
E V
C SS</w>
p i</w>
lobby ists</w>
lo on</w>
energe tic</w>
encomp asses</w>
def enders</w>
ant ine</w>
CA N
Alex and
fing ers</w>
extremis t</w>
dilem ma</w>
deep en</w>
Zagre b</w>
X X
Pro gres
Pay Pal</w>
Pakist ani</w>
I sa
Astri um</w>
s al</w>
pre conditions</w>
o ce
custom ised</w>
bec k</w>
agu a</w>
Luf than
H T</w>
De signed</w>
ticipa tes</w>
su preme</w>
st i</w>
reg a
reach able</w>
happ ily</w>
erg onom
He av
Ei ffel</w>
Co hn</w>
wo ven</w>
nutri tional</w>
ne z</w>
inci dence</w>
imple ments</w>
design ate</w>
arri ves</w>
C I</w>
un ve
un rest</w>
un pleasant</w>
toler ated</w>
modern ise</w>
es k
contin ual</w>
ali en
R ay</w>
0 1.
v in</w>
tra iler</w>
sti t
ro y
l an</w>
gradu ates</w>
Tur in</w>
Lufthan sa</w>
Ki ev</w>
D M</w>
se p
R e</w>
M other</w>
L V
Gi u
3 0s</w>
te la</w>
sel ls</w>
rever sed</w>
prec eded</w>
it -01</w>
homos exu
fore station</w>
clo th</w>
art work</w>
announ cements</w>
Li ik
Imag ine</w>
sulph ur</w>
re minis
awa ited</w>
Wal k</w>
p id
it é</w>
in efficient</w>
i ones</w>
Christi anity</w>
An alysis</w>
Ad ver
o ved</w>
ley ball</w>
alum inum</w>
ad as</w>
NG O</w>
Ferr ari</w>
20 50</w>
sham eful</w>
pro min
pollu ter</w>
m age</w>
intensi fied</w>
en gra
Sum mary</w>
Govern ance</w>
D L
Ank ara</w>
gl am
exci ted</w>
en en</w>
Uz bek
Tor re</w>
Sha re
Po d
M aster
Lukash enko</w>
K .</w>
13 5</w>
л ь
un justified</w>
o le
n our
f ill
en ic</w>
algori thms</w>
al liances</w>
affili ate</w>
H av
G NO
F .</w>
En larg
volati le</w>
thi er</w>
si ties</w>
share holder</w>
sa u</w>
refres h
re -01</w>
mod al</w>
k om</w>
func tion
car tri
acceler ation</w>
T H</w>
A tom
re actor</w>
poin tless</w>
lor ries</w>
indic ative</w>
fac ade</w>
deb it</w>
be e</w>
Equ ally</w>
Elec tric</w>
E RP</w>
Ben dit</w>
yach ts</w>
vin tage</w>
syner gy</w>
soc ket</w>
k an
emplo ying</w>
collabor ate</w>
brea thing</w>
ar o</w>
J ones</w>
De tails</w>
D EN
val ve</w>
v icious</w>
s age</w>
pione er</w>
hi red</w>
he ed</w>
frequ encies</w>
Liik anen</w>
Con fig
tra des</w>
mul ticul
mod ulation</w>
ferti li
en ly</w>
dic tionary</w>
care ers</w>
ad el
venti lation</w>
mo sa
in deb
ho f
Pyre nees</w>
Olymp ics</w>
D ele
understand ings</w>
transl ating</w>
spe ed
schol ar
premi ere</w>
k el
hum idity</w>
comp elling</w>
can y
F arm</w>
tr ick</w>
person alities</w>
mountain ous</w>
flav ours</w>
execu tions</w>
dis sid
del uxe</w>
Y emen</w>
port als</w>
out lines</w>
metal lic</w>
ins ists</w>
imag ined</w>
conf isc
Uzbek istan</w>
Sim ple</w>
R F
PH ARE</w>
Fried rich
E ste
te ments</w>
monu mental</w>
in dig
fa st
d ice</w>
as cular</w>
Tom orrow</w>
Cardas sian</w>
Alz heimer</w>
wi z
uniqu ely</w>
un equal</w>
st ors</w>
sc ar</w>
s cu
mal icious</w>
concep tual</w>
con f</w>
C r
AR C</w>
w ir</w>
rob at</w>
practi sed</w>
observ ance</w>
g ation</w>
erec ted</w>
d ant</w>
Car l
C resp
0. 1</w>
z n
road map</w>
reg isters</w>
es .
e w
b ays</w>
R ent</w>
un o</w>
massac re</w>
firm ware</w>
B anks</w>
B LE</w>
ut ter</w>
n iture</w>
manu als</w>
in consistent</w>
fl u</w>
dr a</w>
Ob serv
EL DR</w>
Dub rov
ARG 4</w>
tow n
retri eve</w>
per taining</w>
ot t</w>
lo gi
T OR</w>
M use
Cop y</w>
evalu ations</w>
elem entary</w>
bron ze</w>
N er
ME D
Ex po</w>
upgra des</w>
tw er
st ery</w>
bi d
O omen</w>
y an</w>
sta g</w>
scru tin
cat alogues</w>
bl essed</w>
TAC IS</w>
Par ties</w>
Coff ee</w>
Ass istance</w>
s ad
orienta ted</w>
ome tre</w>
inc umb
in ver
hec tare</w>
diversi fied</w>
d led</w>
Stal in</w>
Re ference</w>
Prof .</w>
vulner abilities</w>
[...]
